{
  "version": "1.0",
  "truncation": null,
  "padding": null,
  "added_tokens": [
    {
      "id": 0,
      "content": "[UNK]",
      "single_word": false,
      "lstrip": false,
      "rstrip": false,
      "normalized": false,
      "special": true
    },
    {
      "id": 1,
      "content": "[SOS]",
      "single_word": false,
      "lstrip": false,
      "rstrip": false,
      "normalized": false,
      "special": true
    },
    {
      "id": 2,
      "content": "[EOS]",
      "single_word": false,
      "lstrip": false,
      "rstrip": false,
      "normalized": false,
      "special": true
    }
  ],
  "normalizer": null,
  "pre_tokenizer": {
    "type": "Whitespace"
  },
  "post_processor": null,
  "decoder": null,
  "model": {
    "type": "WordPiece",
    "unk_token": "[UNK]",
    "continuing_subword_prefix": "##",
    "max_input_chars_per_word": 100,
    "vocab": {
      "[UNK]": 0,
      "[SOS]": 1,
      "[EOS]": 2,
      "!": 3,
      "\"": 4,
      "#": 5,
      "&": 6,
      "'": 7,
      "(": 8,
      ")": 9,
      "*": 10,
      "+": 11,
      ",": 12,
      "-": 13,
      ".": 14,
      "/": 15,
      "0": 16,
      "1": 17,
      "2": 18,
      "3": 19,
      "4": 20,
      "5": 21,
      "6": 22,
      "7": 23,
      "8": 24,
      "9": 25,
      ":": 26,
      ";": 27,
      "<": 28,
      "=": 29,
      ">": 30,
      "?": 31,
      "@": 32,
      "A": 33,
      "B": 34,
      "C": 35,
      "D": 36,
      "E": 37,
      "F": 38,
      "G": 39,
      "H": 40,
      "I": 41,
      "J": 42,
      "K": 43,
      "L": 44,
      "M": 45,
      "N": 46,
      "O": 47,
      "P": 48,
      "Q": 49,
      "R": 50,
      "S": 51,
      "T": 52,
      "U": 53,
      "V": 54,
      "W": 55,
      "X": 56,
      "Y": 57,
      "Z": 58,
      "[": 59,
      "]": 60,
      "^": 61,
      "_": 62,
      "a": 63,
      "b": 64,
      "c": 65,
      "d": 66,
      "e": 67,
      "f": 68,
      "g": 69,
      "h": 70,
      "i": 71,
      "j": 72,
      "k": 73,
      "l": 74,
      "m": 75,
      "n": 76,
      "o": 77,
      "p": 78,
      "q": 79,
      "r": 80,
      "s": 81,
      "t": 82,
      "u": 83,
      "v": 84,
      "w": 85,
      "x": 86,
      "y": 87,
      "z": 88,
      "{": 89,
      "|": 90,
      "}": 91,
      "~": 92,
      "": 93,
      "": 94,
      "": 95,
      "": 96,
      "": 97,
      "": 98,
      "": 99,
      "": 100,
      "§": 101,
      "¨": 102,
      "«": 103,
      "·": 104,
      "»": 105,
      "Ä": 106,
      "Ç": 107,
      "È": 108,
      "Ö": 109,
      "Ü": 110,
      "ß": 111,
      "à": 112,
      "á": 113,
      "â": 114,
      "ä": 115,
      "æ": 116,
      "ç": 117,
      "è": 118,
      "é": 119,
      "ê": 120,
      "ë": 121,
      "ì": 122,
      "í": 123,
      "î": 124,
      "ï": 125,
      "ò": 126,
      "ó": 127,
      "ô": 128,
      "ö": 129,
      "ù": 130,
      "û": 131,
      "ü": 132,
      "œ": 133,
      "–": 134,
      "—": 135,
      "‘": 136,
      "’": 137,
      "“": 138,
      "”": 139,
      "„": 140,
      "†": 141,
      "##b": 142,
      "##g": 143,
      "##e": 144,
      "##s": 145,
      "##c": 146,
      "##h": 147,
      "##i": 148,
      "##d": 149,
      "##n": 150,
      "##r": 151,
      "##l": 152,
      "##a": 153,
      "##f": 154,
      "##o": 155,
      "##t": 156,
      "##ü": 157,
      "##k": 158,
      "##ß": 159,
      "##v": 160,
      "##p": 161,
      "##q": 162,
      "##u": 163,
      "##ä": 164,
      "##ö": 165,
      "##w": 166,
      "##L": 167,
      "##_": 168,
      "##m": 169,
      "##z": 170,
      "##E": 171,
      "##y": 172,
      "##X": 173,
      "##I": 174,
      "##j": 175,
      "##K": 176,
      "##-": 177,
      "##R": 178,
      "##F": 179,
      "##A": 180,
      "##J": 181,
      "##é": 182,
      "##x": 183,
      "##V": 184,
      "##\"": 185,
      "##7": 186,
      "##6": 187,
      "##8": 188,
      "##D": 189,
      "##U": 190,
      "##N": 191,
      "##G": 192,
      "##O": 193,
      "##T": 194,
      "##5": 195,
      "##4": 196,
      "##Z": 197,
      "##W": 198,
      "##M": 199,
      "##[": 200,
      "##Ç": 201,
      "##H": 202,
      "##B": 203,
      "##)": 204,
      "##2": 205,
      "##P": 206,
      "##Ä": 207,
      "##Y": 208,
      "##C": 209,
      "##S": 210,
      "##0": 211,
      "##.": 212,
      "##û": 213,
      "##1": 214,
      "##è": 215,
      "##3": 216,
      "##,": 217,
      "##Ü": 218,
      "##ô": 219,
      "##Ö": 220,
      "##“": 221,
      "##9": 222,
      "##]": 223,
      "##«": 224,
      "##î": 225,
      "##â": 226,
      "##~": 227,
      "##”": 228,
      "##!": 229,
      "##»": 230,
      "##:": 231,
      "##à": 232,
      "##?": 233,
      "##Q": 234,
      "##ó": 235,
      "##ç": 236,
      "##;": 237,
      "##'": 238,
      "##í": 239,
      "##>": 240,
      "##ì": 241,
      "##ê": 242,
      "##’": 243,
      "###": 244,
      "##}": 245,
      "##ò": 246,
      "##ù": 247,
      "##(": 248,
      "##—": 249,
      "##„": 250,
      "##*": 251,
      "##ë": 252,
      "##+": 253,
      "##": 254,
      "##": 255,
      "##|": 256,
      "##": 257,
      "##=": 258,
      "##ï": 259,
      "##œ": 260,
      "##{": 261,
      "##æ": 262,
      "##/": 263,
      "##·": 264,
      "##§": 265,
      "##^": 266,
      "##á": 267,
      "##en": 268,
      "##ch": 269,
      "##er": 270,
      "##in": 271,
      "##ie": 272,
      "##ich": 273,
      "##nd": 274,
      "##st": 275,
      "##ei": 276,
      "##es": 277,
      "##te": 278,
      "##ein": 279,
      "##ll": 280,
      "##an": 281,
      "und": 282,
      "die": 283,
      "##as": 284,
      "##gen": 285,
      "ein": 286,
      "##el": 287,
      "##hr": 288,
      "zu": 289,
      "##em": 290,
      "##ar": 291,
      "##icht": 292,
      "der": 293,
      "##on": 294,
      "##ir": 295,
      "er": 296,
      "##un": 297,
      "au": 298,
      "##ten": 299,
      "##or": 300,
      "##ig": 301,
      "##it": 302,
      "##sch": 303,
      "##au": 304,
      "ich": 305,
      "##et": 306,
      "##lich": 307,
      "##ach": 308,
      "nicht": 309,
      "so": 310,
      "##ur": 311,
      "##eh": 312,
      "##ter": 313,
      "den": 314,
      "##ben": 315,
      "##ck": 316,
      "in": 317,
      "##al": 318,
      "##den": 319,
      "ver": 320,
      "##ber": 321,
      "##at": 322,
      "das": 323,
      "##ge": 324,
      "##mm": 325,
      "sie": 326,
      "sch": 327,
      "un": 328,
      "sich": 329,
      "##re": 330,
      "##der": 331,
      "ge": 332,
      "da": 333,
      "##hn": 334,
      "##och": 335,
      "ist": 336,
      "##sen": 337,
      "auf": 338,
      "##de": 339,
      "sein": 340,
      "##ung": 341,
      "##eit": 342,
      "mit": 343,
      "##and": 344,
      "es": 345,
      "an": 346,
      "##enn": 347,
      "Sch": 348,
      "von": 349,
      "##ann": 350,
      "##le": 351,
      "dem": 352,
      "##ür": 353,
      "##ern": 354,
      "##ft": 355,
      "##ls": 356,
      "wie": 357,
      "##se": 358,
      "wir": 359,
      "be": 360,
      "Sie": 361,
      "mein": 362,
      "ihr": 363,
      "##is": 364,
      "mir": 365,
      "wo": 366,
      "all": 367,
      "##ag": 368,
      "##ut": 369,
      "##ehr": 370,
      "war": 371,
      "als": 372,
      "ha": 373,
      "##ier": 374,
      "##hl": 375,
      "##und": 376,
      "mich": 377,
      "##be": 378,
      "des": 379,
      "Au": 380,
      "Er": 381,
      "##il": 382,
      "daß": 383,
      "uns": 384,
      "hat": 385,
      "##am": 386,
      "Ich": 387,
      "##nt": 388,
      "aus": 389,
      "##esch": 390,
      "Ge": 391,
      "St": 392,
      "Ver": 393,
      "##ind": 394,
      "man": 395,
      "##ück": 396,
      "##ön": 397,
      "##uch": 398,
      "##ill": 399,
      "##igen": 400,
      "##ra": 401,
      "##ol": 402,
      "##sten": 403,
      "##hm": 404,
      "Die": 405,
      "##ro": 406,
      "eine": 407,
      "du": 408,
      "vor": 409,
      "##rei": 410,
      "##isch": 411,
      "##eu": 412,
      "##etz": 413,
      "--": 414,
      "auch": 415,
      "Und": 416,
      "##ste": 417,
      "##ff": 418,
      "ihn": 419,
      "##urch": 420,
      "##iel": 421,
      "##--": 422,
      "Her": 423,
      "##omm": 424,
      "dies": 425,
      "##chen": 426,
      "nur": 427,
      "##gt": 428,
      "##anz": 429,
      "nach": 430,
      "##llen": 431,
      "##um": 432,
      "##us": 433,
      "was": 434,
      "noch": 435,
      "##eil": 436,
      "##ehen": 437,
      "über": 438,
      "##uß": 439,
      "##cht": 440,
      "wer": 441,
      "##ahr": 442,
      "##rau": 443,
      "wenn": 444,
      "st": 445,
      "um": 446,
      "Der": 447,
      "her": 448,
      "##ien": 449,
      "##nen": 450,
      "bei": 451,
      "ihm": 452,
      "##ick": 453,
      "##acht": 454,
      "##he": 455,
      "##bt": 456,
      "##ot": 457,
      "##eg": 458,
      "##rie": 459,
      "gew": 460,
      "##ige": 461,
      "aber": 462,
      "##zu": 463,
      "##leich": 464,
      "durch": 465,
      "##imm": 466,
      "##pf": 467,
      "So": 468,
      "##ne": 469,
      "einen": 470,
      "Ein": 471,
      "für": 472,
      "##lle": 473,
      "ent": 474,
      "##rä": 475,
      "lie": 476,
      "##ken": 477,
      "hin": 478,
      "im": 479,
      "##ort": 480,
      "##zen": 481,
      "Ihr": 482,
      "doch": 483,
      "##bst": 484,
      "##rt": 485,
      "soll": 486,
      "##ers": 487,
      "sel": 488,
      "##her": 489,
      "Das": 490,
      "##eine": 491,
      "##ät": 492,
      "Un": 493,
      "##wei": 494,
      "##lei": 495,
      "##aß": 496,
      "##rin": 497,
      "##ere": 498,
      "and": 499,
      "##tet": 500,
      "will": 501,
      "kann": 502,
      "##heit": 503,
      "##os": 504,
      "##lichen": 505,
      "##aus": 506,
      "##keit": 507,
      "##ün": 508,
      "ganz": 509,
      "wird": 510,
      "sind": 511,
      "re": 512,
      "##ungen": 513,
      "haben": 514,
      "Be": 515,
      "##ert": 516,
      "##ommen": 517,
      "wieder": 518,
      "##agen": 519,
      "##fen": 520,
      "##ang": 521,
      "wohl": 522,
      "einem": 523,
      "denn": 524,
      "##ul": 525,
      "An": 526,
      "##mal": 527,
      "geh": 528,
      "##eben": 529,
      "Es": 530,
      "##ru": 531,
      "##men": 532,
      "Was": 533,
      "##elt": 534,
      "Fre": 535,
      "##ing": 536,
      "wei": 537,
      "wel": 538,
      "##ster": 539,
      ".)": 540,
      "##end": 541,
      "mehr": 542,
      "zur": 543,
      "dar": 544,
      "einer": 545,
      "unter": 546,
      "##lie": 547,
      "sp": 548,
      "##che": 549,
      "##om": 550,
      "##mmer": 551,
      "selbst": 552,
      "##assen": 553,
      "##aft": 554,
      "##lück": 555,
      "##ßen": 556,
      "##liche": 557,
      "##ri": 558,
      "ab": 559,
      "##rü": 560,
      "##ör": 561,
      "nun": 562,
      "je": 563,
      "werden": 564,
      "##lau": 565,
      "dich": 566,
      "schon": 567,
      "##hen": 568,
      "##we": 569,
      "##etzt": 570,
      "##är": 571,
      "##ab": 572,
      "hier": 573,
      "##än": 574,
      "gen": 575,
      "##einen": 576,
      "##schen": 577,
      "hatte": 578,
      "##erk": 579,
      "le": 580,
      "##änd": 581,
      "##ater": 582,
      "Wie": 583,
      "##ht": 584,
      "Men": 585,
      "diese": 586,
      "habe": 587,
      "##bl": 588,
      "Herr": 589,
      "muß": 590,
      "##bar": 591,
      "##itt": 592,
      "Ges": 593,
      "bes": 594,
      "seine": 595,
      "kön": 596,
      "##achen": 597,
      "meine": 598,
      "dir": 599,
      "##ue": 600,
      "##alten": 601,
      "##alt": 602,
      "viel": 603,
      "##ischen": 604,
      ").": 605,
      "##ad": 606,
      "##ühr": 607,
      "In": 608,
      "Re": 609,
      "alles": 610,
      "Vor": 611,
      "##amm": 612,
      "##kt": 613,
      "Lie": 614,
      "##hne": 615,
      "nichts": 616,
      "##iger": 617,
      "##gel": 618,
      "ges": 619,
      "sag": 620,
      "gro": 621,
      "zum": 622,
      "Zu": 623,
      "Wir": 624,
      "sei": 625,
      "wen": 626,
      "oder": 627,
      "##lt": 628,
      "##ßt": 629,
      "##ph": 630,
      "Freund": 631,
      "dieser": 632,
      "##sp": 633,
      "Mit": 634,
      "gesch": 635,
      "##ald": 636,
      "immer": 637,
      "nie": 638,
      "##ser": 639,
      "Wei": 640,
      "gel": 641,
      "alle": 642,
      "##br": 643,
      "kl": 644,
      "gleich": 645,
      "##sel": 646,
      "##inn": 647,
      "sehr": 648,
      "##sam": 649,
      "ste": 650,
      "##angen": 651,
      "Augen": 652,
      "##all": 653,
      "##oll": 654,
      "##ott": 655,
      "bin": 656,
      "##ffen": 657,
      "Sp": 658,
      "Gesch": 659,
      "##tw": 660,
      "##ger": 661,
      "##ist": 662,
      "##schaft": 663,
      "##af": 664,
      "##war": 665,
      "##nte": 666,
      "schön": 667,
      "Du": 668,
      "##gend": 669,
      "Leben": 670,
      "gef": 671,
      "Mann": 672,
      "Zeit": 673,
      "Bl": 674,
      "##dig": 675,
      "##esen": 676,
      "##eiten": 677,
      "dass": 678,
      "Wenn": 679,
      "Hand": 680,
      "Vater": 681,
      "##ug": 682,
      "##auf": 683,
      "ihre": 684,
      "##est": 685,
      "Auf": 686,
      "ohne": 687,
      "##issen": 688,
      "##ell": 689,
      "##eln": 690,
      "##tel": 691,
      "##gleich": 692,
      "##ehn": 693,
      "##lo": 694,
      "##ze": 695,
      "seiner": 696,
      "##stand": 697,
      "##chte": 698,
      "Da": 699,
      "##öt": 700,
      "##blick": 701,
      "vers": 702,
      "##hnen": 703,
      "Herz": 704,
      ".\"": 705,
      "gegen": 706,
      ".--": 707,
      "dein": 708,
      "##kommen": 709,
      "Ar": 710,
      "##me": 711,
      "ger": 712,
      "##uer": 713,
      "##rach": 714,
      "##ges": 715,
      "Wo": 716,
      "am": 717,
      "kein": 718,
      "##fe": 719,
      "verl": 720,
      "##ah": 721,
      "##ler": 722,
      "ja": 723,
      "##mpf": 724,
      "gar": 725,
      "etw": 726,
      "##pp": 727,
      "Fl": 728,
      "Mar": 729,
      "##igkeit": 730,
      "mö": 731,
      "##nis": 732,
      "##age": 733,
      "##cher": 734,
      "##üt": 735,
      "Aber": 736,
      "##ion": 737,
      "##ke": 738,
      "##ritt": 739,
      "hät": 740,
      "seinen": 741,
      "##iß": 742,
      "Doch": 743,
      "##ild": 744,
      "##ennen": 745,
      "woll": 746,
      "Welt": 747,
      "Hau": 748,
      "zurück": 749,
      "Den": 750,
      "!--": 751,
      "##cken": 752,
      "##inden": 753,
      "Nach": 754,
      "##eist": 755,
      "##geben": 756,
      "sol": 757,
      "Nat": 758,
      "kon": 759,
      "##glich": 760,
      "##ner": 761,
      "machen": 762,
      "Ab": 763,
      "Al": 764,
      "Pf": 765,
      "Man": 766,
      "Se": 767,
      "##ühl": 768,
      "##zt": 769,
      "fr": 770,
      "wür": 771,
      "Aus": 772,
      "schw": 773,
      "##ond": 774,
      "jen": 775,
      "Menschen": 776,
      "dieses": 777,
      "andern": 778,
      "##ange": 779,
      "##ehmen": 780,
      "diesen": 781,
      "eben": 782,
      "##licher": 783,
      "##ße": 784,
      "##uten": 785,
      "wä": 786,
      "##äd": 787,
      "Nun": 788,
      "sagen": 789,
      "Gott": 790,
      "versch": 791,
      "##allen": 792,
      "Fr": 793,
      "##kl": 794,
      "ho": 795,
      "##eiden": 796,
      "sehen": 797,
      "##og": 798,
      "##unden": 799,
      "bis": 800,
      "gut": 801,
      "Ch": 802,
      "etwas": 803,
      "##ische": 804,
      "##ust": 805,
      "Ho": 806,
      "gem": 807,
      "##ammen": 808,
      "neu": 809,
      "einmal": 810,
      "beg": 811,
      "##dien": 812,
      "mü": 813,
      "Nicht": 814,
      "recht": 815,
      "erst": 816,
      "lassen": 817,
      "wenig": 818,
      "##ast": 819,
      "##ander": 820,
      "##ider": 821,
      "##tern": 822,
      "hö": 823,
      "besch": 824,
      "\",": 825,
      "komm": 826,
      "##pt": 827,
      "Gel": 828,
      "glau": 829,
      "hei": 830,
      "Gew": 831,
      "##elm": 832,
      "weiß": 833,
      "diesem": 834,
      "fort": 835,
      "##reu": 836,
      "##ank": 837,
      "meiner": 838,
      "bald": 839,
      "##ief": 840,
      "Frau": 841,
      "##na": 842,
      "##ache": 843,
      "Ste": 844,
      "##rö": 845,
      "Ka": 846,
      "Schl": 847,
      "##llt": 848,
      "eines": 849,
      "Ihnen": 850,
      "allein": 851,
      "##od": 852,
      "Denn": 853,
      "Euch": 854,
      "al": 855,
      "##ragen": 856,
      "##unst": 857,
      "##ahren": 858,
      "##bei": 859,
      "ob": 860,
      "de": 861,
      "Um": 862,
      "sagte": 863,
      "##aum": 864,
      "Gef": 865,
      "welche": 866,
      "können": 867,
      "Kön": 868,
      "meinen": 869,
      "ind": 870,
      "##egen": 871,
      "##richt": 872,
      "##ält": 873,
      "##orden": 874,
      "seinem": 875,
      "unser": 876,
      "##ucht": 877,
      "sollte": 878,
      "##ren": 879,
      "zwei": 880,
      "get": 881,
      "##amen": 882,
      "##ingen": 883,
      "?--": 884,
      "ihren": 885,
      "erf": 886,
      "##ärt": 887,
      "konnte": 888,
      "Mut": 889,
      "##etzte": 890,
      "Mein": 891,
      "weil": 892,
      "bet": 893,
      "Glück": 894,
      "allen": 895,
      "##ont": 896,
      "keine": 897,
      "##ringen": 898,
      "##wo": 899,
      "##los": 900,
      "bef": 901,
      "wollen": 902,
      "hätte": 903,
      "Wer": 904,
      "##ute": 905,
      "Ja": 906,
      "##eig": 907,
      "##orgen": 908,
      "Rei": 909,
      "blei": 910,
      "verw": 911,
      "geb": 912,
      "##sammen": 913,
      "waren": 914,
      "Ent": 915,
      "ru": 916,
      "##ichte": 917,
      "##ette": 918,
      "Bei": 919,
      "##kann": 920,
      "Ko": 921,
      "##onst": 922,
      "##ständ": 923,
      "##agt": 924,
      "##art": 925,
      "nä": 926,
      "vie": 927,
      "##ckt": 928,
      "##immer": 929,
      "##gesch": 930,
      "vom": 931,
      "##äu": 932,
      "##mer": 933,
      "Gegen": 934,
      "euch": 935,
      "##under": 936,
      "##gef": 937,
      "##rechen": 938,
      "##lichkeit": 939,
      "All": 940,
      "jetzt": 941,
      "Gen": 942,
      "##mit": 943,
      "##eht": 944,
      "Geb": 945,
      "hab": 946,
      "##achte": 947,
      "ihrer": 948,
      "Ged": 949,
      "Als": 950,
      "##ches": 951,
      "##inder": 952,
      "genug": 953,
      "##halten": 954,
      "wäre": 955,
      "Wil": 956,
      "wahr": 957,
      "Ma": 958,
      "Augenblick": 959,
      "wollte": 960,
      "ber": 961,
      "##ik": 962,
      "##eute": 963,
      "##dr": 964,
      "Liebe": 965,
      "Kl": 966,
      "zusammen": 967,
      "##gegen": 968,
      "meinem": 969,
      "einz": 970,
      "##sicht": 971,
      "##ius": 972,
      "Wilh": 973,
      "sond": 974,
      "Gra": 975,
      "##rat": 976,
      "##itz": 977,
      "##ver": 978,
      "Ant": 979,
      "##ichen": 980,
      "##ichter": 981,
      "Für": 982,
      "##ieren": 983,
      "##ssen": 984,
      "##über": 985,
      "König": 986,
      "##unde": 987,
      "Brie": 988,
      "Tag": 989,
      "Schw": 990,
      "ihnen": 991,
      "##geb": 992,
      "##weg": 993,
      "##ent": 994,
      "ersch": 995,
      "eigen": 996,
      "Haus": 997,
      "gern": 998,
      "##att": 999,
      "##ia": 1000,
      "Bru": 1001,
      "schl": 1002,
      "##ass": 1003,
      "Ha": 1004,
      "##ian": 1005,
      "##des": 1006,
      "##mt": 1007,
      "Gem": 1008,
      "lä": 1009,
      "##immel": 1010,
      "Von": 1011,
      "hör": 1012,
      "geht": 1013,
      "##ähl": 1014,
      "ward": 1015,
      "dr": 1016,
      "na": 1017,
      "voll": 1018,
      "##ess": 1019,
      "##igt": 1020,
      "verm": 1021,
      "fre": 1022,
      "##anken": 1023,
      "##ehe": 1024,
      "##von": 1025,
      "frei": 1026,
      "##eite": 1027,
      "##im": 1028,
      "##vor": 1029,
      "kommen": 1030,
      "##ard": 1031,
      "verb": 1032,
      "##gl": 1033,
      "##schl": 1034,
      "##dem": 1035,
      "Nacht": 1036,
      "The": 1037,
      "##ele": 1038,
      "werde": 1039,
      "##rän": 1040,
      "##ähr": 1041,
      "Bet": 1042,
      "glück": 1043,
      "Göt": 1044,
      "##nung": 1045,
      "##qu": 1046,
      "##haft": 1047,
      "##det": 1048,
      "Kunst": 1049,
      "##chten": 1050,
      "Ist": 1051,
      "##eister": 1052,
      "##eint": 1053,
      "kommt": 1054,
      "Pl": 1055,
      "Jahr": 1056,
      "würde": 1057,
      "##mann": 1058,
      "he": 1059,
      "Natur": 1060,
      "Le": 1061,
      "aller": 1062,
      "Art": 1063,
      "ins": 1064,
      "Mutter": 1065,
      "Ph": 1066,
      "dann": 1067,
      "Wilhelm": 1068,
      "##erst": 1069,
      "##nde": 1070,
      "##ST": 1071,
      "Hier": 1072,
      "##ßer": 1073,
      "Or": 1074,
      "##atz": 1075,
      "##ahl": 1076,
      "##lleicht": 1077,
      "Himmel": 1078,
      "##bte": 1079,
      "Me": 1080,
      "Lu": 1081,
      "##gem": 1082,
      "##oren": 1083,
      "##ünsch": 1084,
      "Fel": 1085,
      "Geist": 1086,
      "jeder": 1087,
      "sah": 1088,
      "mag": 1089,
      "gest": 1090,
      "Unter": 1091,
      "Ad": 1092,
      "##ueck": 1093,
      "##ogen": 1094,
      "##ara": 1095,
      "##ennt": 1096,
      "weiter": 1097,
      "Gr": 1098,
      "##fl": 1099,
      "##eim": 1100,
      "empf": 1101,
      "Hö": 1102,
      "Land": 1103,
      "fühl": 1104,
      "Auch": 1105,
      "##io": 1106,
      "sonst": 1107,
      "##uss": 1108,
      "Mäd": 1109,
      "##aßt": 1110,
      "##essen": 1111,
      "macht": 1112,
      "##id": 1113,
      "##fte": 1114,
      "bl": 1115,
      "##ha": 1116,
      "lange": 1117,
      "##itten": 1118,
      "indem": 1119,
      "Kind": 1120,
      "##uld": 1121,
      "##inde": 1122,
      "Wor": 1123,
      "schien": 1124,
      "zw": 1125,
      "##hin": 1126,
      "führ": 1127,
      "##fall": 1128,
      "andere": 1129,
      "finden": 1130,
      "Mensch": 1131,
      "lei": 1132,
      "##net": 1133,
      "best": 1134,
      "##ndlich": 1135,
      "wissen": 1136,
      "hast": 1137,
      "tun": 1138,
      "##ies": 1139,
      "##ochen": 1140,
      "besond": 1141,
      "Daß": 1142,
      "fol": 1143,
      "weit": 1144,
      "##dern": 1145,
      "##glück": 1146,
      "##bel": 1147,
      "Freu": 1148,
      "Wort": 1149,
      "##PH": 1150,
      "##ant": 1151,
      "##etzen": 1152,
      "einige": 1153,
      "##ehl": 1154,
      "Ru": 1155,
      "fand": 1156,
      "geben": 1157,
      "Haupt": 1158,
      "we": 1159,
      "##ftig": 1160,
      "Auft": 1161,
      "Th": 1162,
      "sagt": 1163,
      "##unter": 1164,
      "wur": 1165,
      "##ehren": 1166,
      "##fern": 1167,
      "##ibt": 1168,
      "##ünst": 1169,
      "##bend": 1170,
      "##oph": 1171,
      "oft": 1172,
      "Herzen": 1173,
      "Geh": 1174,
      "se": 1175,
      "ganze": 1176,
      "leicht": 1177,
      "also": 1178,
      "##ielt": 1179,
      "Vol": 1180,
      "ersten": 1181,
      "##erson": 1182,
      "##fel": 1183,
      "still": 1184,
      "##eber": 1185,
      "##ieden": 1186,
      "!\"": 1187,
      "##ss": 1188,
      "##eilen": 1189,
      "Bes": 1190,
      "beh": 1191,
      "verst": 1192,
      "großen": 1193,
      "##gst": 1194,
      "##wärt": 1195,
      "erz": 1196,
      "##itter": 1197,
      "##mals": 1198,
      "War": 1199,
      "kam": 1200,
      "zie": 1201,
      "Gesell": 1202,
      "Mädchen": 1203,
      "##ack": 1204,
      "ar": 1205,
      "ko": 1206,
      "gewesen": 1207,
      "##tlich": 1208,
      "Sohn": 1209,
      "##urz": 1210,
      "Will": 1211,
      "weg": 1212,
      "##pel": 1213,
      "##ugend": 1214,
      "Ber": 1215,
      "Beg": 1216,
      "ir": 1217,
      "##ine": 1218,
      "erw": 1219,
      "deine": 1220,
      "Bo": 1221,
      "davon": 1222,
      "##zie": 1223,
      "bist": 1224,
      "sondern": 1225,
      "Nur": 1226,
      "grö": 1227,
      "Prin": 1228,
      "verg": 1229,
      "ihrem": 1230,
      "bem": 1231,
      "La": 1232,
      "##reiben": 1233,
      "##hig": 1234,
      "wär": 1235,
      "##old": 1236,
      "##co": 1237,
      "##wür": 1238,
      "##ücken": 1239,
      "We": 1240,
      "wider": 1241,
      "##haf": 1242,
      "##eigen": 1243,
      "Weg": 1244,
      "He": 1245,
      "vielleicht": 1246,
      "##aten": 1247,
      "Schön": 1248,
      "Auftritt": 1249,
      "##ffe": 1250,
      "##ächt": 1251,
      "##innen": 1252,
      "##alb": 1253,
      "##immt": 1254,
      "Ed": 1255,
      "##liches": 1256,
      "##iert": 1257,
      "##raft": 1258,
      "##gew": 1259,
      "##euer": 1260,
      "##get": 1261,
      "steht": 1262,
      "Gesellschaft": 1263,
      "##oet": 1264,
      "Person": 1265,
      "##uchen": 1266,
      "##gehen": 1267,
      "Gest": 1268,
      "##kannt": 1269,
      "##geh": 1270,
      "El": 1271,
      "ging": 1272,
      "##adt": 1273,
      "damit": 1274,
      "wirk": 1275,
      "##stens": 1276,
      "##äß": 1277,
      "##reich": 1278,
      "darauf": 1279,
      "Seele": 1280,
      "Ach": 1281,
      "##auer": 1282,
      "hervor": 1283,
      "gehen": 1284,
      "Zwei": 1285,
      "gemacht": 1286,
      "Bild": 1287,
      "ganzen": 1288,
      "Gl": 1289,
      "lang": 1290,
      "17": 1291,
      "Ihre": 1292,
      "##nü": 1293,
      "sieht": 1294,
      "##enden": 1295,
      "##loß": 1296,
      "ließ": 1297,
      "##ört": 1298,
      "nieder": 1299,
      "##ehm": 1300,
      "##geg": 1301,
      "##eid": 1302,
      "Herrn": 1303,
      "##trau": 1304,
      "Blick": 1305,
      "Ehr": 1306,
      "la": 1307,
      "tre": 1308,
      "##tete": 1309,
      "höch": 1310,
      "##äl": 1311,
      "bew": 1312,
      "##führ": 1313,
      "##ringt": 1314,
      "Br": 1315,
      "##rag": 1316,
      "##nden": 1317,
      "darf": 1318,
      "##no": 1319,
      "erg": 1320,
      "Kinder": 1321,
      "versetzte": 1322,
      "##itte": 1323,
      "De": 1324,
      "##pe": 1325,
      "##EL": 1326,
      "könnte": 1327,
      "##ct": 1328,
      "Dem": 1329,
      "Son": 1330,
      "entsch": 1331,
      "Am": 1332,
      "##stell": 1333,
      "##affen": 1334,
      "Dichter": 1335,
      "Namen": 1336,
      "Lieb": 1337,
      "Seite": 1338,
      "Tage": 1339,
      "leben": 1340,
      "gibt": 1341,
      "übr": 1342,
      "müssen": 1343,
      "##rieden": 1344,
      "frü": 1345,
      "##mehr": 1346,
      "sollen": 1347,
      "seines": 1348,
      "alten": 1349,
      "dort": 1350,
      "##uldig": 1351,
      "Mir": 1352,
      "##iges": 1353,
      "##eren": 1354,
      "##ehrt": 1355,
      "Frei": 1356,
      "rief": 1357,
      "##gest": 1358,
      "qu": 1359,
      "rei": 1360,
      "##ochter": 1361,
      "##eug": 1362,
      "Pro": 1363,
      "Freunde": 1364,
      "ed": 1365,
      "##indet": 1366,
      "Tod": 1367,
      "##eigt": 1368,
      "##selben": 1369,
      "glücklich": 1370,
      "##ett": 1371,
      "##pl": 1372,
      "Brief": 1373,
      "Dam": 1374,
      "##ßte": 1375,
      "guten": 1376,
      "erh": 1377,
      "##nell": 1378,
      "bel": 1379,
      "eil": 1380,
      "Pa": 1381,
      "##üh": 1382,
      "##sche": 1383,
      "welcher": 1384,
      "##lossen": 1385,
      "##so": 1386,
      "##pr": 1387,
      "keinen": 1388,
      "##ade": 1389,
      "##aler": 1390,
      "##rieben": 1391,
      "lieb": 1392,
      "Stadt": 1393,
      "Weise": 1394,
      "##mand": 1395,
      "##arl": 1396,
      "##ausen": 1397,
      "ged": 1398,
      "läßt": 1399,
      "endlich": 1400,
      "##aut": 1401,
      "Tochter": 1402,
      "Lei": 1403,
      "besonders": 1404,
      "##orn": 1405,
      "##schein": 1406,
      "hatten": 1407,
      "Nein": 1408,
      "denken": 1409,
      "##bracht": 1410,
      "Lebens": 1411,
      "##ure": 1412,
      "Kr": 1413,
      "##lung": 1414,
      "Wahr": 1415,
      "##ic": 1416,
      "##ohn": 1417,
      "Verw": 1418,
      "gewiß": 1419,
      "Hause": 1420,
      "möchte": 1421,
      "##ed": 1422,
      "Werk": 1423,
      "brau": 1424,
      "ern": 1425,
      "Schwe": 1426,
      "Fab": 1427,
      "sogleich": 1428,
      "lieben": 1429,
      "Prinz": 1430,
      "herr": 1431,
      "Des": 1432,
      "gute": 1433,
      "##äum": 1434,
      "Bu": 1435,
      "Ro": 1436,
      "##iz": 1437,
      "stand": 1438,
      "##erd": 1439,
      "##th": 1440,
      "##öhn": 1441,
      "##als": 1442,
      "##ib": 1443,
      "dessen": 1444,
      "Bruder": 1445,
      "##org": 1446,
      "groß": 1447,
      "besser": 1448,
      "kaum": 1449,
      "##ungs": 1450,
      "große": 1451,
      "ew": 1452,
      "##mut": 1453,
      "##etzten": 1454,
      "heraus": 1455,
      "erk": 1456,
      "bed": 1457,
      "##tem": 1458,
      "##einander": 1459,
      "worden": 1460,
      "##kel": 1461,
      "verd": 1462,
      "nehmen": 1463,
      "Über": 1464,
      "Dien": 1465,
      "Herzog": 1466,
      "halten": 1467,
      "zwar": 1468,
      "##asse": 1469,
      "meines": 1470,
      "lieber": 1471,
      "hören": 1472,
      "##nehmen": 1473,
      "##öll": 1474,
      "Verb": 1475,
      "en": 1476,
      "Phil": 1477,
      "leb": 1478,
      "##ord": 1479,
      "drei": 1480,
      "##ob": 1481,
      "Händ": 1482,
      "anders": 1483,
      "verh": 1484,
      "solchen": 1485,
      "##arak": 1486,
      "Besch": 1487,
      "##durch": 1488,
      "##ER": 1489,
      "##inge": 1490,
      "Verg": 1491,
      "##ührt": 1492,
      "hinter": 1493,
      "Leiden": 1494,
      "##dert": 1495,
      "##per": 1496,
      "unbe": 1497,
      "Empf": 1498,
      "Buch": 1499,
      "Ne": 1500,
      "Sache": 1501,
      "##chem": 1502,
      "wünsch": 1503,
      "##han": 1504,
      "Schick": 1505,
      "##ign": 1506,
      "Wohl": 1507,
      "ueber": 1508,
      "Dr": 1509,
      "Lis": 1510,
      "##empel": 1511,
      "##ichten": 1512,
      "##legen": 1513,
      "welches": 1514,
      "##urcht": 1515,
      "verz": 1516,
      "Lust": 1517,
      "Worte": 1518,
      "Ger": 1519,
      "Dies": 1520,
      "Freude": 1521,
      "##uhr": 1522,
      "##merk": 1523,
      "Volk": 1524,
      "gl": 1525,
      "##zig": 1526,
      "Frauen": 1527,
      "Teil": 1528,
      "##riff": 1529,
      "Im": 1530,
      "th": 1531,
      "##fer": 1532,
      "schnell": 1533,
      "wirklich": 1534,
      "Hof": 1535,
      "Wol": 1536,
      "##sse": 1537,
      "##ften": 1538,
      "Dor": 1539,
      "?\"": 1540,
      "##arten": 1541,
      "##gte": 1542,
      "Trau": 1543,
      "##itel": 1544,
      "zwischen": 1545,
      "FA": 1546,
      "Diese": 1547,
      "dazu": 1548,
      "##ruck": 1549,
      "##keiten": 1550,
      "##rer": 1551,
      "##etter": 1552,
      "schle": 1553,
      "entgegen": 1554,
      "los": 1555,
      "##wegen": 1556,
      "Sinn": 1557,
      "Ur": 1558,
      "fro": 1559,
      "Ende": 1560,
      "deinen": 1561,
      "Chr": 1562,
      "Zimmer": 1563,
      "##hält": 1564,
      "erre": 1565,
      "angen": 1566,
      "##herr": 1567,
      "bringen": 1568,
      "##iv": 1569,
      "Jul": 1570,
      "Kopf": 1571,
      "tief": 1572,
      "##frieden": 1573,
      "##wend": 1574,
      "##stein": 1575,
      "schöne": 1576,
      "##gleichen": 1577,
      "##tt": 1578,
      "Edu": 1579,
      "wor": 1580,
      "##enne": 1581,
      "##iss": 1582,
      "freund": 1583,
      "gab": 1584,
      "Stra": 1585,
      "wunder": 1586,
      "En": 1587,
      "unsere": 1588,
      "Abend": 1589,
      "##äft": 1590,
      "näher": 1591,
      "Grä": 1592,
      "##fin": 1593,
      "star": 1594,
      "deut": 1595,
      "##sal": 1596,
      "stehen": 1597,
      "bleibt": 1598,
      "##av": 1599,
      "beiden": 1600,
      "##aden": 1601,
      "bleiben": 1602,
      "fl": 1603,
      "heil": 1604,
      "warum": 1605,
      "Hoff": 1606,
      "Anton": 1607,
      "erwar": 1608,
      "bede": 1609,
      "gesehen": 1610,
      "Eine": 1611,
      "Fies": 1612,
      "##öpf": 1613,
      "##enig": 1614,
      "##ollen": 1615,
      "##äch": 1616,
      "deren": 1617,
      "##unft": 1618,
      "Stimm": 1619,
      "Komm": 1620,
      "Sich": 1621,
      "Unglück": 1622,
      "##cke": 1623,
      "dabei": 1624,
      "##ückt": 1625,
      "möglich": 1626,
      "Män": 1627,
      "Morgen": 1628,
      "Ze": 1629,
      "fuer": 1630,
      "##hol": 1631,
      "##zogen": 1632,
      "Noch": 1633,
      "machte": 1634,
      "##ällt": 1635,
      "##ied": 1636,
      "aufs": 1637,
      "##leid": 1638,
      "Hü": 1639,
      "##racht": 1640,
      "##tre": 1641,
      "##wer": 1642,
      "##zus": 1643,
      "Durch": 1644,
      "ans": 1645,
      "##aun": 1646,
      "Fiesco": 1647,
      "##schaf": 1648,
      "mußte": 1649,
      "##piel": 1650,
      "schwer": 1651,
      "jener": 1652,
      "Gedanken": 1653,
      "##achten": 1654,
      "Stu": 1655,
      "##mlich": 1656,
      "Mich": 1657,
      "Recht": 1658,
      "zugleich": 1659,
      "##uchte": 1660,
      "liegt": 1661,
      "neue": 1662,
      "Mo": 1663,
      "##itzen": 1664,
      "niemand": 1665,
      "##zlich": 1666,
      "##urt": 1667,
      "Schmer": 1668,
      "Goet": 1669,
      "klein": 1670,
      "Wesen": 1671,
      "kü": 1672,
      "versp": 1673,
      "##samkeit": 1674,
      "##ausend": 1675,
      "Weib": 1676,
      "##tin": 1677,
      "##indung": 1678,
      "solche": 1679,
      "Bar": 1680,
      "wuß": 1681,
      "beide": 1682,
      "län": 1683,
      "##ation": 1684,
      "erzähl": 1685,
      "##nisse": 1686,
      "jene": 1687,
      "vier": 1688,
      "##nten": 1689,
      "##urg": 1690,
      "##ES": 1691,
      "heute": 1692,
      "##bild": 1693,
      "scheint": 1694,
      "geworden": 1695,
      "schönen": 1696,
      "##arakter": 1697,
      "nahm": 1698,
      "flie": 1699,
      "##öl": 1700,
      "denen": 1701,
      "verf": 1702,
      "weniger": 1703,
      "Fein": 1704,
      "fest": 1705,
      "zul": 1706,
      "##agte": 1707,
      "unsern": 1708,
      "rein": 1709,
      "Po": 1710,
      "kennen": 1711,
      "##undert": 1712,
      "Fü": 1713,
      "##wohl": 1714,
      "Fuß": 1715,
      "##hau": 1716,
      "##ickt": 1717,
      "Alles": 1718,
      "Eduard": 1719,
      "Ind": 1720,
      "Oh": 1721,
      "##reit": 1722,
      "##denken": 1723,
      "##halt": 1724,
      "##kte": 1725,
      "##hlen": 1726,
      "sprach": 1727,
      "##ichtet": 1728,
      "allgem": 1729,
      "zuletzt": 1730,
      "##gang": 1731,
      "##heiten": 1732,
      "Gut": 1733,
      "##inne": 1734,
      "Stück": 1735,
      "Vers": 1736,
      "##stellt": 1737,
      "sey": 1738,
      "Don": 1739,
      "muss": 1740,
      "##erz": 1741,
      "##ilde": 1742,
      "##ören": 1743,
      "herein": 1744,
      "##gar": 1745,
      "wenigstens": 1746,
      "Stelle": 1747,
      "Gräfin": 1748,
      "Ott": 1749,
      "kleinen": 1750,
      "irgend": 1751,
      "##IST": 1752,
      "##eile": 1753,
      "##atten": 1754,
      "besten": 1755,
      "trau": 1756,
      "erinn": 1757,
      "Tempel": 1758,
      "entfern": 1759,
      "Wasser": 1760,
      "##ünd": 1761,
      "##ae": 1762,
      "Verz": 1763,
      "##ischer": 1764,
      "erste": 1765,
      "##ilie": 1766,
      "##lieb": 1767,
      "Ganz": 1768,
      "##ise": 1769,
      "##mö": 1770,
      "##reck": 1771,
      "Lisette": 1772,
      "##werk": 1773,
      "bek": 1774,
      "Auge": 1775,
      "deiner": 1776,
      "Sa": 1777,
      "allem": 1778,
      "getan": 1779,
      "##oben": 1780,
      "##ire": 1781,
      "Alle": 1782,
      "Hel": 1783,
      "zer": 1784,
      "##unge": 1785,
      "Sein": 1786,
      "##will": 1787,
      "hinaus": 1788,
      "Gesp": 1789,
      "Not": 1790,
      "Wel": 1791,
      "Stueck": 1792,
      "Warum": 1793,
      "äuß": 1794,
      "##viel": 1795,
      "##voll": 1796,
      "erhalten": 1797,
      "welchen": 1798,
      "wurde": 1799,
      "##chsel": 1800,
      "Erde": 1801,
      "##stellen": 1802,
      "##endet": 1803,
      "Charakter": 1804,
      "viele": 1805,
      "##egenheit": 1806,
      "Brust": 1807,
      "Gro": 1808,
      "reich": 1809,
      "Nathan": 1810,
      "Rom": 1811,
      "Kap": 1812,
      "##ende": 1813,
      "Schicksal": 1814,
      "##iere": 1815,
      "Fol": 1816,
      "Feuer": 1817,
      "##isse": 1818,
      "liebe": 1819,
      "##ppen": 1820,
      "Künst": 1821,
      "##aust": 1822,
      "verdien": 1823,
      "größ": 1824,
      "Personen": 1825,
      "Sel": 1826,
      "freilich": 1827,
      "Gleich": 1828,
      "et": 1829,
      "##urm": 1830,
      "Gesicht": 1831,
      "sehn": 1832,
      "##ande": 1833,
      "Theater": 1834,
      "Verl": 1835,
      "sprechen": 1836,
      "Pfl": 1837,
      "Ei": 1838,
      "reden": 1839,
      "_M": 1840,
      "verk": 1841,
      "##chter": 1842,
      "##etten": 1843,
      "ehr": 1844,
      "Fe": 1845,
      "##rast": 1846,
      "ME": 1847,
      "##OPH": 1848,
      "herum": 1849,
      "Hoffnung": 1850,
      "Je": 1851,
      "frem": 1852,
      "##nahm": 1853,
      "dür": 1854,
      "##PHIST": 1855,
      "##ELES": 1856,
      "##OPHELES": 1857,
      "##PHISTOPHELES": 1858,
      "##zeit": 1859,
      "##ernen": 1860,
      "##umen": 1861,
      "MEPHISTOPHELES": 1862,
      "Sonne": 1863,
      "Jetzt": 1864,
      "Szen": 1865,
      "##reis": 1866,
      "##äll": 1867,
      "welchem": 1868,
      "Par": 1869,
      "Jahre": 1870,
      "Trä": 1871,
      "##bten": 1872,
      "##auen": 1873,
      "##uren": 1874,
      "jeden": 1875,
      "##wart": 1876,
      "##sinn": 1877,
      "##ker": 1878,
      "##zug": 1879,
      "Qu": 1880,
      "pl": 1881,
      "seh": 1882,
      "##fter": 1883,
      "ebenso": 1884,
      "##ina": 1885,
      "gegeben": 1886,
      "##otte": 1887,
      "##schaften": 1888,
      "##ließen": 1889,
      "##ahn": 1890,
      "Hin": 1891,
      "Kna": 1892,
      "##mar": 1893,
      "vern": 1894,
      "Schaus": 1895,
      "##ilden": 1896,
      "kurz": 1897,
      "##erne": 1898,
      "Jugend": 1899,
      "##alte": 1900,
      "##änder": 1901,
      "##dann": 1902,
      "##ilien": 1903,
      "Soph": 1904,
      "ander": 1905,
      "##baren": 1906,
      "Kais": 1907,
      "tritt": 1908,
      "verschieden": 1909,
      "Laß": 1910,
      "letzten": 1911,
      "##ings": 1912,
      "wurden": 1913,
      "##sto": 1914,
      "Wirk": 1915,
      "Wein": 1916,
      "##one": 1917,
      "##orm": 1918,
      "##klär": 1919,
      "gn": 1920,
      "nat": 1921,
      "seit": 1922,
      "Heil": 1923,
      "##fft": 1924,
      "Charl": 1925,
      "Wahrheit": 1926,
      "Eigen": 1927,
      "##zw": 1928,
      "Erf": 1929,
      "##standen": 1930,
      "wußte": 1931,
      "Win": 1932,
      "hinein": 1933,
      "##esto": 1934,
      "Goethe": 1935,
      "##bringen": 1936,
      "##AR": 1937,
      "Reich": 1938,
      "##sehen": 1939,
      "##auber": 1940,
      "##eigung": 1941,
      "Schwester": 1942,
      "Krie": 1943,
      "##quem": 1944,
      "Eg": 1945,
      "##hst": 1946,
      "völl": 1947,
      "geg": 1948,
      "##ce": 1949,
      "Schon": 1950,
      "Bü": 1951,
      "Reg": 1952,
      "sehe": 1953,
      "daher": 1954,
      "Absicht": 1955,
      "glauben": 1956,
      "##weise": 1957,
      "Gelegenheit": 1958,
      "Dank": 1959,
      "Vort": 1960,
      "##II": 1961,
      "Verhält": 1962,
      "##ille": 1963,
      "##esse": 1964,
      "auszu": 1965,
      "##wärts": 1966,
      "##meister": 1967,
      "##olz": 1968,
      "##istoph": 1969,
      "Gefühl": 1970,
      "Adrast": 1971,
      "hält": 1972,
      "##ücht": 1973,
      "##ys": 1974,
      "anzu": 1975,
      "hie": 1976,
      "tut": 1977,
      "Stimme": 1978,
      "Licht": 1979,
      "ihres": 1980,
      "Zustand": 1981,
      "##zeich": 1982,
      "betrach": 1983,
      "Jo": 1984,
      "Leute": 1985,
      "Wallen": 1986,
      "kleine": 1987,
      "Geld": 1988,
      "folgen": 1989,
      "Ew": 1990,
      "##lassen": 1991,
      "##ingt": 1992,
      "Wallenstein": 1993,
      "Rat": 1994,
      "##auern": 1995,
      "##ale": 1996,
      "ung": 1997,
      "ange": 1998,
      "Soll": 1999,
      "stür": 2000,
      "daran": 2001,
      "deinem": 2002,
      "Sal": 2003,
      "##abe": 2004,
      "##äter": 2005,
      "Gestalt": 2006,
      "##gessen": 2007,
      "brach": 2008,
      "fast": 2009,
      "##tler": 2010,
      "##wand": 2011,
      "willst": 2012,
      "verloren": 2013,
      "Frem": 2014,
      "Kraft": 2015,
      "Zum": 2016,
      "##ud": 2017,
      "dahin": 2018,
      "wirst": 2019,
      "Blut": 2020,
      "Meine": 2021,
      "laß": 2022,
      "Beweg": 2023,
      "neuen": 2024,
      "Schauspiel": 2025,
      "##bare": 2026,
      "Gewalt": 2027,
      "Götz": 2028,
      "übrigen": 2029,
      "Fabel": 2030,
      "Dar": 2031,
      "##spiel": 2032,
      "gerade": 2033,
      "Euer": 2034,
      "gesagt": 2035,
      "Graf": 2036,
      "##falls": 2037,
      "Stunde": 2038,
      "##stände": 2039,
      "Männer": 2040,
      "##zü": 2041,
      "einiger": 2042,
      "außer": 2043,
      "##ore": 2044,
      "##annt": 2045,
      "Arb": 2046,
      "gewöhn": 2047,
      "jedem": 2048,
      "ruhig": 2049,
      "eigentlich": 2050,
      "Damis": 2051,
      "Jün": 2052,
      "Nie": 2053,
      "##jen": 2054,
      "##ös": 2055,
      "##ged": 2056,
      "##rieb": 2057,
      "Fürst": 2058,
      "Briefe": 2059,
      "##ugen": 2060,
      "##uter": 2061,
      "weder": 2062,
      "lau": 2063,
      "##aben": 2064,
      "##ans": 2065,
      "unver": 2066,
      "Geschichte": 2067,
      "pf": 2068,
      "beim": 2069,
      "##llef": 2070,
      "alte": 2071,
      "Hat": 2072,
      "##raten": 2073,
      "Dann": 2074,
      "To": 2075,
      "anf": 2076,
      "Neigung": 2077,
      "##stehen": 2078,
      "dadurch": 2079,
      "Mellef": 2080,
      "##ühle": 2081,
      "Szene": 2082,
      "Mellefont": 2083,
      "##ahm": 2084,
      "##enster": 2085,
      "Uns": 2086,
      "bemerk": 2087,
      "Mu": 2088,
      "wegen": 2089,
      "##wind": 2090,
      "schick": 2091,
      "gekommen": 2092,
      "##ieht": 2093,
      "##angt": 2094,
      "Stunden": 2095,
      "nöt": 2096,
      "##bald": 2097,
      "sollten": 2098,
      "gehört": 2099,
      "freu": 2100,
      "##mp": 2101,
      "bez": 2102,
      "Bed": 2103,
      "Frie": 2104,
      "Tro": 2105,
      "hielt": 2106,
      "kö": 2107,
      "##digen": 2108,
      "##aßen": 2109,
      "##ens": 2110,
      "bekannt": 2111,
      "##reifen": 2112,
      "eig": 2113,
      "que": 2114,
      "Erst": 2115,
      "##well": 2116,
      "Platz": 2117,
      "Wege": 2118,
      "merk": 2119,
      "##abt": 2120,
      "##äus": 2121,
      "##reibt": 2122,
      "Mittel": 2123,
      "gering": 2124,
      "Götter": 2125,
      "Mus": 2126,
      "offen": 2127,
      "einander": 2128,
      "##pfer": 2129,
      "##rift": 2130,
      "##twor": 2131,
      "Franz": 2132,
      "##ai": 2133,
      "Nichts": 2134,
      "vollkommen": 2135,
      "ne": 2136,
      "Künstler": 2137,
      "Ferd": 2138,
      "##lieben": 2139,
      "Gna": 2140,
      "Mü": 2141,
      "##kunft": 2142,
      "##ossen": 2143,
      "##ehlen": 2144,
      "Nä": 2145,
      "fuhr": 2146,
      "mu": 2147,
      "##inand": 2148,
      "bey": 2149,
      "Urs": 2150,
      "Ferdinand": 2151,
      "tr": 2152,
      "tausend": 2153,
      "vertrau": 2154,
      "##ziehen": 2155,
      "##nügen": 2156,
      "Jahren": 2157,
      "##ilber": 2158,
      "##iele": 2159,
      "##are": 2160,
      "##spr": 2161,
      "Ehre": 2162,
      "fe": 2163,
      "##umm": 2164,
      "##eils": 2165,
      "jem": 2166,
      "##ieg": 2167,
      "##lichsten": 2168,
      "##lauben": 2169,
      "sonder": 2170,
      "Kn": 2171,
      "Sinne": 2172,
      "##erken": 2173,
      "Rede": 2174,
      "Teu": 2175,
      "findet": 2176,
      "##op": 2177,
      "##UST": 2178,
      "gek": 2179,
      "Wirt": 2180,
      "gefunden": 2181,
      "zeigen": 2182,
      "vert": 2183,
      "begeg": 2184,
      "##rage": 2185,
      "Maj": 2186,
      "Furcht": 2187,
      "oben": 2188,
      "zeig": 2189,
      "##ießen": 2190,
      "spiel": 2191,
      "seid": 2192,
      "Vaters": 2193,
      "##elte": 2194,
      "##ertig": 2195,
      "##ppe": 2196,
      "Wunder": 2197,
      "ben": 2198,
      "##..": 2199,
      "uner": 2200,
      "FAUST": 2201,
      "zerst": 2202,
      "##inell": 2203,
      "##andelt": 2204,
      "jede": 2205,
      "Reise": 2206,
      "Grund": 2207,
      "bedeuten": 2208,
      "desto": 2209,
      "fiel": 2210,
      "##gr": 2211,
      "##ilder": 2212,
      "gefallen": 2213,
      "Wider": 2214,
      "##reten": 2215,
      "Kapitel": 2216,
      "Ex": 2217,
      "##rich": 2218,
      "Gegenwart": 2219,
      "früh": 2220,
      "Jüngl": 2221,
      "Fa": 2222,
      "Ort": 2223,
      "men": 2224,
      "mei": 2225,
      "##anke": 2226,
      "Ohr": 2227,
      "##len": 2228,
      "##ja": 2229,
      "##stern": 2230,
      "##würdig": 2231,
      "Baron": 2232,
      "##mack": 2233,
      "Neu": 2234,
      "Ober": 2235,
      "Zw": 2236,
      "hol": 2237,
      "Schi": 2238,
      "könne": 2239,
      "Ju": 2240,
      "##üre": 2241,
      "##andeln": 2242,
      "##prochen": 2243,
      "##aff": 2244,
      "##alent": 2245,
      "unglück": 2246,
      "##utz": 2247,
      "unsre": 2248,
      "Koenig": 2249,
      "Kom": 2250,
      "Bef": 2251,
      "ras": 2252,
      "##onnen": 2253,
      "inn": 2254,
      "habt": 2255,
      "Erz": 2256,
      "##nete": 2257,
      "##ünschen": 2258,
      "Eur": 2259,
      "Boden": 2260,
      "ernst": 2261,
      "bringt": 2262,
      "##az": 2263,
      "Arm": 2264,
      "verlassen": 2265,
      "Teufel": 2266,
      "nimmt": 2267,
      "sage": 2268,
      "##raut": 2269,
      "darin": 2270,
      "spricht": 2271,
      "wollt": 2272,
      "manches": 2273,
      "ewig": 2274,
      "seyn": 2275,
      "lo": 2276,
      "nennen": 2277,
      "##genommen": 2278,
      "Vertrau": 2279,
      "jed": 2280,
      "##ehlt": 2281,
      "Arme": 2282,
      "eh": 2283,
      "halb": 2284,
      "##ou": 2285,
      "##recken": 2286,
      "jung": 2287,
      "##zimmer": 2288,
      "andre": 2289,
      "geschehen": 2290,
      "Sprach": 2291,
      "Pap": 2292,
      "jedoch": 2293,
      "##ienen": 2294,
      "Marinell": 2295,
      "hätten": 2296,
      "##führen": 2297,
      "Que": 2298,
      "##land": 2299,
      "darüber": 2300,
      "Weis": 2301,
      "Absch": 2302,
      "Pfer": 2303,
      "Luft": 2304,
      "Joh": 2305,
      "Marinelli": 2306,
      "not": 2307,
      "##igsten": 2308,
      "hoch": 2309,
      "natür": 2310,
      "grü": 2311,
      "neben": 2312,
      "##si": 2313,
      "##für": 2314,
      "##que": 2315,
      "jedes": 2316,
      "##ino": 2317,
      "voraus": 2318,
      "kannst": 2319,
      "gehabt": 2320,
      "##ophan": 2321,
      "mo": 2322,
      "##eles": 2323,
      "##ehrte": 2324,
      "##reise": 2325,
      "darum": 2326,
      "abzu": 2327,
      "Schmerz": 2328,
      "Sophie": 2329,
      "Garten": 2330,
      "guter": 2331,
      "##ok": 2332,
      "##iegen": 2333,
      "Gegend": 2334,
      "Geheim": 2335,
      "freundlich": 2336,
      "Ari": 2337,
      "Fenster": 2338,
      "trat": 2339,
      "##if": 2340,
      "##recht": 2341,
      "##rug": 2342,
      "Alter": 2343,
      "fühlte": 2344,
      "Seiten": 2345,
      "Tisch": 2346,
      "##chmal": 2347,
      "vergessen": 2348,
      "##ame": 2349,
      "Chor": 2350,
      "##haupt": 2351,
      "Wert": 2352,
      "Wagen": 2353,
      "entw": 2354,
      "##ährt": 2355,
      "Busen": 2356,
      "##istopheles": 2357,
      "Kir": 2358,
      "erblick": 2359,
      "##phistopheles": 2360,
      "##kla": 2361,
      "jungen": 2362,
      "##scht": 2363,
      "##hafte": 2364,
      "Fä": 2365,
      "fein": 2366,
      "##aren": 2367,
      "##berg": 2368,
      "überall": 2369,
      "##adin": 2370,
      "glaubte": 2371,
      "Luise": 2372,
      "gnäd": 2373,
      "',": 2374,
      "##eilt": 2375,
      "Stein": 2376,
      "Gesprä": 2377,
      "it": 2378,
      "##setz": 2379,
      "schwei": 2380,
      "völlig": 2381,
      "Johann": 2382,
      "acht": 2383,
      "trä": 2384,
      "eins": 2385,
      "überz": 2386,
      "Kör": 2387,
      "##chs": 2388,
      "##ons": 2389,
      "entde": 2390,
      "länger": 2391,
      "Lehr": 2392,
      "##ite": 2393,
      "dergleichen": 2394,
      "Felsen": 2395,
      "Zauber": 2396,
      "Ern": 2397,
      "unserm": 2398,
      "Deut": 2399,
      "Kaiser": 2400,
      "But": 2401,
      "fällt": 2402,
      "grau": 2403,
      "##het": 2404,
      "##iegel": 2405,
      "##scher": 2406,
      "##otten": 2407,
      "Allein": 2408,
      "##lagen": 2409,
      "##ahrt": 2410,
      "Anblick": 2411,
      "Meer": 2412,
      "##stes": 2413,
      "##igem": 2414,
      "Verstand": 2415,
      "niemals": 2416,
      "##meich": 2417,
      "Schönheit": 2418,
      "bloß": 2419,
      "Bedien": 2420,
      "Kü": 2421,
      "hü": 2422,
      "##falt": 2423,
      "##ene": 2424,
      "##itzt": 2425,
      "mancher": 2426,
      "gehn": 2427,
      "Gefahr": 2428,
      "Fürsten": 2429,
      "traur": 2430,
      "Ku": 2431,
      "scheinen": 2432,
      "aufzu": 2433,
      "Ruhe": 2434,
      "Vergnügen": 2435,
      "Gi": 2436,
      "wü": 2437,
      "aufge": 2438,
      "##reib": 2439,
      "##reiten": 2440,
      "hinauf": 2441,
      "Musik": 2442,
      "Dein": 2443,
      "Macht": 2444,
      "blieb": 2445,
      "##res": 2446,
      "##alien": 2447,
      "liegen": 2448,
      "großer": 2449,
      "Tempelherr": 2450,
      "Bewegung": 2451,
      "Reine": 2452,
      "Tr": 2453,
      "zufrieden": 2454,
      "Dieser": 2455,
      "##ängt": 2456,
      "keiner": 2457,
      "unserer": 2458,
      "sa": 2459,
      "gegenwärt": 2460,
      "bisher": 2461,
      "beglei": 2462,
      "erfahren": 2463,
      "Frü": 2464,
      "Miß": 2465,
      "for": 2466,
      "ert": 2467,
      "##utzen": 2468,
      "##ücke": 2469,
      "näch": 2470,
      "Betracht": 2471,
      "Hände": 2472,
      "Fam": 2473,
      "Fall": 2474,
      "##erung": 2475,
      "##ließ": 2476,
      "Augenblicke": 2477,
      "_F": 2478,
      "##erte": 2479,
      "Menge": 2480,
      "bö": 2481,
      "treu": 2482,
      "wuer": 2483,
      "dagegen": 2484,
      "genau": 2485,
      "heißt": 2486,
      "Theophan": 2487,
      "Koenigin": 2488,
      "Bel": 2489,
      "Zeiten": 2490,
      "##oed": 2491,
      "##eitet": 2492,
      "##test": 2493,
      "##uche": 2494,
      "heut": 2495,
      "tro": 2496,
      "##elfen": 2497,
      "selten": 2498,
      "##stimm": 2499,
      "antwor": 2500,
      "vielen": 2501,
      "Nachbar": 2502,
      "Kal": 2503,
      "##kraft": 2504,
      "##ehme": 2505,
      "manchmal": 2506,
      "wert": 2507,
      "vielmehr": 2508,
      "würden": 2509,
      "größten": 2510,
      "Pal": 2511,
      "Sim": 2512,
      "Tre": 2513,
      "##egt": 2514,
      "##halb": 2515,
      "Schritt": 2516,
      "Versch": 2517,
      "glaube": 2518,
      "##ras": 2519,
      "##unsch": 2520,
      "##achsen": 2521,
      "schreiben": 2522,
      "Begriff": 2523,
      "Arbeit": 2524,
      "suchen": 2525,
      "##setzen": 2526,
      "##ckte": 2527,
      "##denk": 2528,
      "gebracht": 2529,
      "Pu": 2530,
      "Thr": 2531,
      "dro": 2532,
      "“.": 2533,
      "##opp": 2534,
      "Ihren": 2535,
      "Anf": 2536,
      "fragte": 2537,
      "Dicht": 2538,
      "einf": 2539,
      "##mmt": 2540,
      "solcher": 2541,
      "verschw": 2542,
      "Worten": 2543,
      "Dinge": 2544,
      "sü": 2545,
      "##isten": 2546,
      "Ihrer": 2547,
      "##iane": 2548,
      "Freiheit": 2549,
      "18": 2550,
      "Meister": 2551,
      "##AN": 2552,
      "wolle": 2553,
      "Marwo": 2554,
      "höchst": 2555,
      "##stellung": 2556,
      "Marwood": 2557,
      "Prä": 2558,
      "##lla": 2559,
      "##itze": 2560,
      "Schr": 2561,
      "##uchten": 2562,
      "rechten": 2563,
      "##igny": 2564,
      "Vier": 2565,
      "fal": 2566,
      "rau": 2567,
      "versich": 2568,
      "Saladin": 2569,
      "Sor": 2570,
      "fallen": 2571,
      "ster": 2572,
      "setzen": 2573,
      "##ho": 2574,
      "##pft": 2575,
      "##mont": 2576,
      "schwar": 2577,
      "selber": 2578,
      "etwa": 2579,
      "Feld": 2580,
      "führen": 2581,
      "Jüngling": 2582,
      "Oct": 2583,
      "finde": 2584,
      "morgen": 2585,
      "##inken": 2586,
      "vergeben": 2587,
      "wiederhol": 2588,
      "Spiel": 2589,
      "Leidenschaft": 2590,
      "And": 2591,
      "Beh": 2592,
      "Mitt": 2593,
      "Vern": 2594,
      "tragen": 2595,
      "##ta": 2596,
      "##komm": 2597,
      "##EN": 2598,
      "Sta": 2599,
      "Sto": 2600,
      "genommen": 2601,
      "##arr": 2602,
      "schuldig": 2603,
      "selt": 2604,
      "##ildet": 2605,
      "brachte": 2606,
      "Tugend": 2607,
      "Vie": 2608,
      "Wür": 2609,
      "alt": 2610,
      "leiden": 2611,
      "herab": 2612,
      "Max": 2613,
      "Besitz": 2614,
      "Hei": 2615,
      "Zur": 2616,
      "Gelie": 2617,
      "früher": 2618,
      "Werke": 2619,
      "Zeichen": 2620,
      "pa": 2621,
      "suchte": 2622,
      "to": 2623,
      "einigen": 2624,
      "##dent": 2625,
      "##ottwell": 2626,
      "Flottwell": 2627,
      "Dors": 2628,
      "##ix": 2629,
      "Schm": 2630,
      "##ürger": 2631,
      "Flor": 2632,
      "Kann": 2633,
      "“,": 2634,
      "##dige": 2635,
      "##maßen": 2636,
      "erle": 2637,
      "gelie": 2638,
      "heiter": 2639,
      "mensch": 2640,
      "Dorsigny": 2641,
      "Kein": 2642,
      "##achtet": 2643,
      "beste": 2644,
      "sollt": 2645,
      "gehalten": 2646,
      "Mitleid": 2647,
      "##wohn": 2648,
      "Wolf": 2649,
      "angenehm": 2650,
      "Tränen": 2651,
      "Egmont": 2652,
      "##zte": 2653,
      "##lichste": 2654,
      "Geschle": 2655,
      "hohen": 2656,
      "wären": 2657,
      "Dieses": 2658,
      "##oedie": 2659,
      "vollen": 2660,
      "##arf": 2661,
      "derselben": 2662,
      "beru": 2663,
      "Ord": 2664,
      "##pliz": 2665,
      "erkennen": 2666,
      "Charlotte": 2667,
      "##arm": 2668,
      "erb": 2669,
      "_Me": 2670,
      "Sprache": 2671,
      "Pferde": 2672,
      ",--": 2673,
      "##öff": 2674,
      "konnten": 2675,
      "Gottes": 2676,
      "_Mephistopheles": 2677,
      "Mon": 2678,
      "##ämt": 2679,
      "schm": 2680,
      "Fest": 2681,
      "Tagen": 2682,
      "san": 2683,
      "##igte": 2684,
      "hoff": 2685,
      "Gemäl": 2686,
      "Himmels": 2687,
      "fragen": 2688,
      "lust": 2689,
      "übel": 2690,
      "sogar": 2691,
      "zog": 2692,
      "schreck": 2693,
      "gewissen": 2694,
      "Anst": 2695,
      "nunmehr": 2696,
      "wollten": 2697,
      "##wendig": 2698,
      "Simpliz": 2699,
      "Wird": 2700,
      "Aufmerk": 2701,
      "fern": 2702,
      "##ehler": 2703,
      "Alten": 2704,
      "Grafen": 2705,
      "einzu": 2706,
      "##dete": 2707,
      "Willen": 2708,
      "Pflicht": 2709,
      "the": 2710,
      "##teil": 2711,
      "##uen": 2712,
      "geschrieben": 2713,
      "einzige": 2714,
      "##haften": 2715,
      "Simplizius": 2716,
      "pro": 2717,
      "##yr": 2718,
      "##aub": 2719,
      "##ünft": 2720,
      "Nachricht": 2721,
      "hört": 2722,
      "##gten": 2723,
      "##lingen": 2724,
      "unsch": 2725,
      "##roffen": 2726,
      "##erecht": 2727,
      "##laubt": 2728,
      "koennen": 2729,
      "Diener": 2730,
      "geist": 2731,
      "##raun": 2732,
      "glaubt": 2733,
      "...": 2734,
      "Ros": 2735,
      "est": 2736,
      "##alen": 2737,
      "##laub": 2738,
      "Herren": 2739,
      "führt": 2740,
      "fassen": 2741,
      "kamen": 2742,
      "lag": 2743,
      "##ous": 2744,
      "manche": 2745,
      "jenen": 2746,
      "##mittel": 2747,
      "Mel": 2748,
      "letzte": 2749,
      "##ment": 2750,
      "bereit": 2751,
      "treff": 2752,
      "##möglich": 2753,
      "Sind": 2754,
      "eher": 2755,
      "##elten": 2756,
      "sicher": 2757,
      "##--\"": 2758,
      "##uecks": 2759,
      "Freuden": 2760,
      "fa": 2761,
      "gr": 2762,
      "##iesen": 2763,
      "##amp": 2764,
      "liebt": 2765,
      "jenes": 2766,
      "##note": 2767,
      "Buttler": 2768,
      "Dir": 2769,
      "Is": 2770,
      "Ill": 2771,
      "Mö": 2772,
      "Ob": 2773,
      "mächt": 2774,
      "##heil": 2775,
      "##druck": 2776,
      "##opf": 2777,
      "##enk": 2778,
      "zuerst": 2779,
      "##irr": 2780,
      "Erster": 2781,
      "vorbei": 2782,
      "Krieg": 2783,
      "Aufmerksamkeit": 2784,
      ".~": 2785,
      ".}": 2786,
      "Hoch": 2787,
      "Krä": 2788,
      "Mund": 2789,
      "Sara": 2790,
      "##ißt": 2791,
      "##ügel": 2792,
      "##zer": 2793,
      "##irg": 2794,
      "##uchs": 2795,
      "Plan": 2796,
      "Höhe": 2797,
      "Knaben": 2798,
      "Sei": 2799,
      "Seine": 2800,
      "Trag": 2801,
      "Gesetz": 2802,
      "Terz": 2803,
      "##eser": 2804,
      "##gebracht": 2805,
      "Schuld": 2806,
      "durchaus": 2807,
      "Armen": 2808,
      "Reisen": 2809,
      "hörte": 2810,
      "Tür": 2811,
      "Ueber": 2812,
      "Wurz": 2813,
      "##ult": 2814,
      "daraus": 2815,
      "Alte": 2816,
      "Gemüt": 2817,
      "##avio": 2818,
      "Selbst": 2819,
      "Dich": 2820,
      "##ügen": 2821,
      "dafür": 2822,
      "Verf": 2823,
      "##indungen": 2824,
      "genießen": 2825,
      "##ady": 2826,
      "##samen": 2827,
      "Geister": 2828,
      "Hil": 2829,
      "Kar": 2830,
      "Ster": 2831,
      "kr": 2832,
      "äl": 2833,
      "##vo": 2834,
      "##inen": 2835,
      "##ase": 2836,
      "##urs": 2837,
      "bequem": 2838,
      "Aug": 2839,
      "##isches": 2840,
      "##----": 2841,
      "müsse": 2842,
      "Bem": 2843,
      "tat": 2844,
      "wa": 2845,
      "##äftig": 2846,
      "lebhaft": 2847,
      "Engel": 2848,
      "Eben": 2849,
      "Ir": 2850,
      "bitte": 2851,
      "##sst": 2852,
      "##üllt": 2853,
      "##ätzen": 2854,
      "Rech": 2855,
      "Weil": 2856,
      "lö": 2857,
      "##OR": 2858,
      "##eugt": 2859,
      "##äng": 2860,
      "beschäft": 2861,
      "Hauptmann": 2862,
      "Ursache": 2863,
      "Gü": 2864,
      "Raum": 2865,
      "Ton": 2866,
      "##zut": 2867,
      "stren": 2868,
      "Füßen": 2869,
      "Mühe": 2870,
      "Terzk": 2871,
      "Mag": 2872,
      "Tat": 2873,
      "Wunsch": 2874,
      "ähn": 2875,
      "##ichtig": 2876,
      "##ußt": 2877,
      "_Faust": 2878,
      "##gung": 2879,
      "##sa": 2880,
      "##wort": 2881,
      "##iefen": 2882,
      "Alc": 2883,
      "Eure": 2884,
      "##osen": 2885,
      "##öh": 2886,
      "##iet": 2887,
      "##reift": 2888,
      "##rue": 2889,
      "verlieren": 2890,
      "Kammer": 2891,
      "Ottilien": 2892,
      "Amt": 2893,
      "me": 2894,
      "##lungen": 2895,
      "##reut": 2896,
      "##ager": 2897,
      "hinzu": 2898,
      "##ohnt": 2899,
      "Glie": 2900,
      "Mond": 2901,
      "Te": 2902,
      "Wald": 2903,
      "br": 2904,
      "erklär": 2905,
      "##unk": 2906,
      "##igkeiten": 2907,
      "##eth": 2908,
      "##gegangen": 2909,
      "##haltung": 2910,
      "Vielleicht": 2911,
      "Maler": 2912,
      "Zwe": 2913,
      "dachte": 2914,
      "hal": 2915,
      "##ngst": 2916,
      "Schloß": 2917,
      "Erinn": 2918,
      "##pfel": 2919,
      "Geschmack": 2920,
      "##haber": 2921,
      "Frauenzimmer": 2922,
      "Alt": 2923,
      "Fort": 2924,
      "reg": 2925,
      "zeigt": 2926,
      "##reif": 2927,
      "könnt": 2928,
      "wechsel": 2929,
      "Grü": 2930,
      "kenne": 2931,
      "##arb": 2932,
      "haette": 2933,
      "##pfen": 2934,
      "##kannte": 2935,
      "stillen": 2936,
      "Berg": 2937,
      "Zweiter": 2938,
      "Terzky": 2939,
      "Ah": 2940,
      "nein": 2941,
      "sitzen": 2942,
      "##ate": 2943,
      "##elnd": 2944,
      "Freundin": 2945,
      "##gesetzt": 2946,
      "Martin": 2947,
      "##ständig": 2948,
      "Empfindung": 2949,
      "Wirkung": 2950,
      "pfle": 2951,
      "zeigte": 2952,
      "meisten": 2953,
      "Eind": 2954,
      "Fehler": 2955,
      "##satz": 2956,
      "##aen": 2957,
      "mehrere": 2958,
      "hoffen": 2959,
      "##geführt": 2960,
      "leider": 2961,
      "Octavio": 2962,
      "Gold": 2963,
      "].": 2964,
      "##ante": 2965,
      "##rifft": 2966,
      "müßte": 2967,
      "komme": 2968,
      "erwarten": 2969,
      "junge": 2970,
      "lesen": 2971,
      "##ret": 2972,
      "##lä": 2973,
      "erhe": 2974,
      "wünschte": 2975,
      "##uecksilber": 2976,
      "Hen": 2977,
      "ehe": 2978,
      "##igung": 2979,
      "werd": 2980,
      "##zend": 2981,
      "Luc": 2982,
      "Ordnung": 2983,
      "Brü": 2984,
      "Fuss": 2985,
      "Klo": 2986,
      "Pol": 2987,
      "Sachen": 2988,
      "Türe": 2989,
      "##burg": 2990,
      "##niß": 2991,
      "##ühm": 2992,
      "##orgt": 2993,
      "gebe": 2994,
      "##anden": 2995,
      "##ünftig": 2996,
      "gesp": 2997,
      "heftig": 2998,
      "Leon": 2999,
      "deutlich": 3000,
      "Helden": 3001,
      "##urer": 3002,
      "##ängen": 3003,
      "##ständen": 3004,
      "Schwert": 3005,
      "ziehen": 3006,
      "verzei": 3007,
      "Ottilie": 3008,
      "Schiff": 3009,
      "Gast": 3010,
      "Sold": 3011,
      "blos": 3012,
      "##oß": 3013,
      "##üst": 3014,
      "denke": 3015,
      "heran": 3016,
      "##änge": 3017,
      "Regen": 3018,
      "Geschäft": 3019,
      "zweiten": 3020,
      "brin": 3021,
      "##fallen": 3022,
      "##eidig": 3023,
      "##ätze": 3024,
      "Schlaf": 3025,
      "ruh": 3026,
      "Adel": 3027,
      "Zweifel": 3028,
      "Ernst": 3029,
      "Fig": 3030,
      "##erl": 3031,
      "sobald": 3032,
      "##euten": 3033,
      "umher": 3034,
      "gewalt": 3035,
      "gedacht": 3036,
      "##zehn": 3037,
      "ausge": 3038,
      "Wieder": 3039,
      "Gesinn": 3040,
      "Handlung": 3041,
      "Genu": 3042,
      "Also": 3043,
      "Baum": 3044,
      "ro": 3045,
      "tot": 3046,
      "ängst": 3047,
      "##ium": 3048,
      "##tlichen": 3049,
      "##ese": 3050,
      "inter": 3051,
      "schlie": 3052,
      "Schul": 3053,
      "vorher": 3054,
      "sollst": 3055,
      "gehe": 3056,
      "##brochen": 3057,
      "Klein": 3058,
      "einzel": 3059,
      "entschieden": 3060,
      "Händen": 3061,
      "erzählen": 3062,
      "Gar": 3063,
      "drän": 3064,
      "helfen": 3065,
      "nah": 3066,
      "fürchte": 3067,
      "Far": 3068,
      "Lo": 3069,
      "Laßt": 3070,
      "Woll": 3071,
      "fertig": 3072,
      "##ip": 3073,
      "lebt": 3074,
      "##blik": 3075,
      "schöner": 3076,
      "schönsten": 3077,
      "hätt": 3078,
      "nahe": 3079,
      "Liebhaber": 3080,
      "braucht": 3081,
      "Vom": 3082,
      "wünschen": 3083,
      "##hle": 3084,
      "##äglich": 3085,
      "Meinung": 3086,
      "##kannten": 3087,
      "art": 3088,
      "kenn": 3089,
      "lernen": 3090,
      "sucht": 3091,
      "##do": 3092,
      "##fahren": 3093,
      "##ierde": 3094,
      "klar": 3095,
      "hoffe": 3096,
      "erfreu": 3097,
      "Alcest": 3098,
      "##bes": 3099,
      "##ägt": 3100,
      "entz": 3101,
      "##tets": 3102,
      "##riffen": 3103,
      "Geschick": 3104,
      "Wolken": 3105,
      "stark": 3106,
      "Feind": 3107,
      "Major": 3108,
      "##ANN": 3109,
      "Wurzel": 3110,
      "Fussnote": 3111,
      "Blei": 3112,
      "Geht": 3113,
      "Hab": 3114,
      "su": 3115,
      "##ieten": 3116,
      "##ierte": 3117,
      "herunter": 3118,
      "gewisse": 3119,
      "alter": 3120,
      "bemerken": 3121,
      "##ungskraft": 3122,
      "Hast": 3123,
      "##seite": 3124,
      "##ap": 3125,
      "##eter": 3126,
      "##atri": 3127,
      "##weisen": 3128,
      "Weimar": 3129,
      "Verzei": 3130,
      "Lage": 3131,
      "bill": 3132,
      "##seit": 3133,
      "##mäß": 3134,
      "##ernt": 3135,
      "deswegen": 3136,
      "##ilt": 3137,
      "##rauch": 3138,
      "statt": 3139,
      "Bew": 3140,
      "Aristo": 3141,
      "Präsi": 3142,
      "Gemälde": 3143,
      "Em": 3144,
      "ma": 3145,
      "##teten": 3146,
      "##asen": 3147,
      "Hügel": 3148,
      "Nähe": 3149,
      "Gespräch": 3150,
      "sterben": 3151,
      "drau": 3152,
      "vorüber": 3153,
      "Einbild": 3154,
      "##rim": 3155,
      "gesetzt": 3156,
      "Blumen": 3157,
      "deines": 3158,
      "erscheinen": 3159,
      "spielen": 3160,
      "Ep": 3161,
      "MAR": 3162,
      "Sü": 3163,
      "denkt": 3164,
      "untersch": 3165,
      "gesprochen": 3166,
      "Zug": 3167,
      "Freundschaft": 3168,
      "gerne": 3169,
      "##treff": 3170,
      "##jenigen": 3171,
      "Gnaden": 3172,
      "Reineke": 3173,
      "Geschöpf": 3174,
      "fühlt": 3175,
      "Leip": 3176,
      "##friedenheit": 3177,
      "Mas": 3178,
      "Rück": 3179,
      "dank": 3180,
      "kur": 3181,
      "##kehr": 3182,
      "##str": 3183,
      "##essel": 3184,
      "schein": 3185,
      "Schn": 3186,
      "red": 3187,
      "mußt": 3188,
      "Glut": 3189,
      "Schauspieler": 3190,
      "##alentin": 3191,
      "Leonore": 3192,
      "Gute": 3193,
      "Kam": 3194,
      "Lady": 3195,
      "el": 3196,
      "##ßig": 3197,
      "Frank": 3198,
      "nötig": 3199,
      "Dort": 3200,
      "setzte": 3201,
      "trin": 3202,
      "##unken": 3203,
      "schau": 3204,
      "##andt": 3205,
      "Verd": 3206,
      "##iller": 3207,
      "ums": 3208,
      "Ihrem": 3209,
      "indessen": 3210,
      "##ardo": 3211,
      "Weislingen": 3212,
      "Frage": 3213,
      "Mad": 3214,
      "Ser": 3215,
      "hundert": 3216,
      "quecksilber": 3217,
      "teil": 3218,
      "##lang": 3219,
      "sowohl": 3220,
      "damals": 3221,
      "vorzu": 3222,
      "##asso": 3223,
      "178": 3224,
      "liebens": 3225,
      "Oheim": 3226,
      "Geheimnis": 3227,
      "Sorge": 3228,
      "Geschlecht": 3229,
      "Voll": 3230,
      "Wissen": 3231,
      "##wider": 3232,
      "##hnung": 3233,
      "Stand": 3234,
      "##ätigkeit": 3235,
      "Mannes": 3236,
      "Gegenstand": 3237,
      "fanden": 3238,
      "Florian": 3239,
      "fing": 3240,
      "fehlt": 3241,
      "setzt": 3242,
      "##geht": 3243,
      "##mä": 3244,
      "sodann": 3245,
      "herbei": 3246,
      "##sprechen": 3247,
      "gelegen": 3248,
      "##same": 3249,
      "Daja": 3250,
      "Tages": 3251,
      "treten": 3252,
      "Gericht": 3253,
      "thun": 3254,
      "wuerde": 3255,
      "Aristotel": 3256,
      "Rau": 3257,
      "Tor": 3258,
      "drin": 3259,
      "##tliche": 3260,
      "erm": 3261,
      "##orben": 3262,
      "##andel": 3263,
      "##anzig": 3264,
      "nachdem": 3265,
      "spr": 3266,
      "könnten": 3267,
      "Weiber": 3268,
      "glän": 3269,
      "##aunen": 3270,
      "verdient": 3271,
      "Li": 3272,
      "##oral": 3273,
      "schwe": 3274,
      "allzu": 3275,
      "kömmt": 3276,
      "Kreis": 3277,
      "Tasso": 3278,
      "Wind": 3279,
      "po": 3280,
      "##müt": 3281,
      "##eier": 3282,
      "##ochte": 3283,
      "Schrecken": 3284,
      "Stir": 3285,
      "##angel": 3286,
      "##enntnis": 3287,
      "fühlen": 3288,
      "##äume": 3289,
      "eignen": 3290,
      "Illo": 3291,
      "ER": 3292,
      "Eugen": 3293,
      "It": 3294,
      "Zus": 3295,
      "anst": 3296,
      "entf": 3297,
      "##afft": 3298,
      "176": 3299,
      "krie": 3300,
      "##bet": 3301,
      "##atze": 3302,
      "Schwei": 3303,
      "herauf": 3304,
      "##afel": 3305,
      "Verbindung": 3306,
      "Juliane": 3307,
      "dürfen": 3308,
      "paar": 3309,
      "Hör": 3310,
      "Valentin": 3311,
      "gold": 3312,
      "##ober": 3313,
      "##onne": 3314,
      "##orfen": 3315,
      "klug": 3316,
      "Betragen": 3317,
      "höchsten": 3318,
      "Erzähl": 3319,
      "Ihm": 3320,
      "retten": 3321,
      "##innt": 3322,
      "diesmal": 3323,
      "Angel": 3324,
      "Zufriedenheit": 3325,
      "gleichsam": 3326,
      "jenem": 3327,
      "Gemahl": 3328,
      "Eugenie": 3329,
      "Gatt": 3330,
      "##lfe": 3331,
      "##kten": 3332,
      "##unkt": 3333,
      "Freunden": 3334,
      "Dienst": 3335,
      "Chrys": 3336,
      "Welch": 3337,
      "Vertrauen": 3338,
      "Aristoteles": 3339,
      "Bald": 3340,
      "Endlich": 3341,
      "Sitt": 3342,
      "##ement": 3343,
      "gemein": 3344,
      "Herzens": 3345,
      "zieht": 3346,
      "Karl": 3347,
      "No": 3348,
      "##nungen": 3349,
      "##ve": 3350,
      "desselben": 3351,
      "##eugen": 3352,
      "höre": 3353,
      "eigenen": 3354,
      "##schlag": 3355,
      "führte": 3356,
      "eilte": 3357,
      ".[": 3358,
      "Kne": 3359,
      "Sol": 3360,
      "il": 3361,
      "kennt": 3362,
      "laßt": 3363,
      "teils": 3364,
      "##gere": 3365,
      "##ling": 3366,
      "##ahrung": 3367,
      "Traum": 3368,
      "Folge": 3369,
      "##nahme": 3370,
      "Körper": 3371,
      "Bis": 3372,
      "Ide": 3373,
      "ex": 3374,
      "mus": 3375,
      "zärt": 3376,
      "##afen": 3377,
      "einst": 3378,
      "schen": 3379,
      "##reben": 3380,
      "vortreff": 3381,
      "##phigen": 3382,
      "mögen": 3383,
      "Ausdruck": 3384,
      "entwick": 3385,
      "Iphigen": 3386,
      "Len": 3387,
      "Mer": 3388,
      "fühle": 3389,
      "stets": 3390,
      "##va": 3391,
      "##arren": 3392,
      "unend": 3393,
      "gep": 3394,
      "Stro": 3395,
      "Gesang": 3396,
      "Mitte": 3397,
      "Groß": 3398,
      "Min": 3399,
      "##gü": 3400,
      "##gern": 3401,
      "##inkt": 3402,
      "##elmen": 3403,
      "inner": 3404,
      "##bergen": 3405,
      "Erd": 3406,
      "##ückte": 3407,
      "##raf": 3408,
      "##ärchen": 3409,
      "gefähr": 3410,
      "keines": 3411,
      "franz": 3412,
      "höher": 3413,
      "Thekla": 3414,
      "Pau": 3415,
      "kä": 3416,
      "leg": 3417,
      "or": 3418,
      "##anten": 3419,
      "##hren": 3420,
      "##eme": 3421,
      "##ettet": 3422,
      "##eus": 3423,
      "abgesch": 3424,
      "läch": 3425,
      "gestern": 3426,
      "Volta": 3427,
      "allgemeinen": 3428,
      "Ferne": 3429,
      "Valer": 3430,
      "gingen": 3431,
      "öff": 3432,
      "##ister": 3433,
      "##äche": 3434,
      "##wir": 3435,
      "##elig": 3436,
      "Verdien": 3437,
      "überras": 3438,
      "##ünf": 3439,
      "ganzes": 3440,
      "See": 3441,
      "gewöhnlich": 3442,
      "dopp": 3443,
      "aufmerk": 3444,
      "Erschein": 3445,
      "Zusch": 3446,
      "gelassen": 3447,
      "Pferd": 3448,
      "übrig": 3449,
      "##ällig": 3450,
      "Ewald": 3451,
      "bezahl": 3452,
      "Kirche": 3453,
      "itzt": 3454,
      "Familie": 3455,
      "Präsident": 3456,
      "Kä": 3457,
      "Lö": 3458,
      "bilden": 3459,
      "##nern": 3460,
      "##üllen": 3461,
      "##anc": 3462,
      "Still": 3463,
      "##anzen": 3464,
      "##ionen": 3465,
      "Entfern": 3466,
      "größte": 3467,
      "sahen": 3468,
      "Kloster": 3469,
      "Chrysander": 3470,
      "Di": 3471,
      "Dingen": 3472,
      "Jar": 3473,
      "miß": 3474,
      "wann": 3475,
      "##uck": 3476,
      "eingesch": 3477,
      "##tert": 3478,
      "##oth": 3479,
      "wahre": 3480,
      "##schlagen": 3481,
      "bestimm": 3482,
      "fromm": 3483,
      "Wa": 3484,
      "##esst": 3485,
      "überhaupt": 3486,
      "##rauen": 3487,
      "##änglich": 3488,
      "geschwind": 3489,
      "Aussicht": 3490,
      "##essin": 3491,
      "Eindruck": 3492,
      "Jun": 3493,
      "##fre": 3494,
      "Schu": 3495,
      "##örder": 3496,
      "vieles": 3497,
      "verdrie": 3498,
      "Akt": 3499,
      "bra": 3500,
      "dur": 3501,
      "##IS": 3502,
      "##aup": 3503,
      "##ehnt": 3504,
      "##gestellt": 3505,
      "Schatz": 3506,
      "##wegt": 3507,
      "Lied": 3508,
      "##haben": 3509,
      "Eltern": 3510,
      "##hung": 3511,
      "##üge": 3512,
      "##ma": 3513,
      "##unehmen": 3514,
      "solle": 3515,
      "schmer": 3516,
      "##ütz": 3517,
      "##ogn": 3518,
      "##zusehen": 3519,
      "Indem": 3520,
      "Saal": 3521,
      "anderer": 3522,
      "Acht": 3523,
      "Braut": 3524,
      "Hom": 3525,
      "##sw": 3526,
      "##stet": 3527,
      "##altet": 3528,
      "beweg": 3529,
      "wodurch": 3530,
      "weißt": 3531,
      "unterhalten": 3532,
      "##äuft": 3533,
      "Schöne": 3534,
      "Knie": 3535,
      "vergebens": 3536,
      "Jung": 3537,
      "Söll": 3538,
      "unmöglich": 3539,
      "hinab": 3540,
      "geschw": 3541,
      "gleichfalls": 3542,
      "stille": 3543,
      "Empfindungen": 3544,
      "Post": 3545,
      "Verhältnis": 3546,
      "Staat": 3547,
      ".]": 3548,
      "Lassen": 3549,
      "Ritter": 3550,
      "erl": 3551,
      "##eitung": 3552,
      "Erk": 3553,
      "##uchtet": 3554,
      "##riet": 3555,
      "geblieben": 3556,
      "Entsch": 3557,
      "Königs": 3558,
      "behaup": 3559,
      "##hafter": 3560,
      "##äumen": 3561,
      "schlecht": 3562,
      "##willen": 3563,
      "interess": 3564,
      "Leipzig": 3565,
      "nimmer": 3566,
      "##eres": 3567,
      "gez": 3568,
      "Lieben": 3569,
      "##underung": 3570,
      "empfinden": 3571,
      "Lande": 3572,
      "bestimmt": 3573,
      "Kommt": 3574,
      "Schmerzen": 3575,
      "##mögen": 3576,
      "Ap": 3577,
      "Klei": 3578,
      "vo": 3579,
      "##elen": 3580,
      "##aufen": 3581,
      "spät": 3582,
      "ruft": 3583,
      "einzigen": 3584,
      "ziemlich": 3585,
      "entfernt": 3586,
      "Vorteil": 3587,
      "notwendig": 3588,
      "Guten": 3589,
      "Hals": 3590,
      "Per": 3591,
      "Sä": 3592,
      "Weh": 3593,
      "bele": 3594,
      "##bru": 3595,
      "##haus": 3596,
      "##emmt": 3597,
      "ers": 3598,
      "##unt": 3599,
      "##äuf": 3600,
      "froh": 3601,
      "muessen": 3602,
      "Söller": 3603,
      "Oder": 3604,
      "eure": 3605,
      "##bo": 3606,
      "##ging": 3607,
      "##eien": 3608,
      "schmeich": 3609,
      "##deut": 3610,
      "##räul": 3611,
      "##ätz": 3612,
      "##weis": 3613,
      "##aßte": 3614,
      "später": 3615,
      "stehn": 3616,
      "versamm": 3617,
      "folgt": 3618,
      "arme": 3619,
      "##scheinlich": 3620,
      "Prinzessin": 3621,
      "worauf": 3622,
      "Verzwei": 3623,
      "bemerkt": 3624,
      "beschäftigt": 3625,
      "Gä": 3626,
      "Tafel": 3627,
      "Wär": 3628,
      "trü": 3629,
      "##heim": 3630,
      "##lein": 3631,
      "##ohlen": 3632,
      "##ßlich": 3633,
      "##CH": 3634,
      "##ink": 3635,
      "aufgeh": 3636,
      "wohin": 3637,
      "Einen": 3638,
      "##rina": 3639,
      "Anl": 3640,
      "Esse": 3641,
      "##weder": 3642,
      "solches": 3643,
      "##diener": 3644,
      "geboren": 3645,
      "Knabe": 3646,
      "trägt": 3647,
      "##räulein": 3648,
      "Bö": 3649,
      "For": 3650,
      "Führ": 3651,
      "Grö": 3652,
      "Tur": 3653,
      "langen": 3654,
      "lasse": 3655,
      "par": 3656,
      "##nes": 3657,
      "##eige": 3658,
      "eröff": 3659,
      "schrei": 3660,
      "unsrer": 3661,
      "Unbe": 3662,
      "##ützen": 3663,
      "heißen": 3664,
      "verstehen": 3665,
      "fremden": 3666,
      "Sittah": 3667,
      "),": 3668,
      "##gekommen": 3669,
      "stolz": 3670,
      "##ände": 3671,
      "Unterhaltung": 3672,
      "Paar": 3673,
      "aufmerksam": 3674,
      "Fräulein": 3675,
      "Kor": 3676,
      "sorg": 3677,
      "tät": 3678,
      "##ühen": 3679,
      "denk": 3680,
      "unb": 3681,
      "unmittel": 3682,
      "##andlung": 3683,
      "##anze": 3684,
      "##ahre": 3685,
      "##imml": 3686,
      "Gewiß": 3687,
      "##zeichnet": 3688,
      "##jenige": 3689,
      "gegenwärtig": 3690,
      "Anfang": 3691,
      "Jarno": 3692,
      "Gunst": 3693,
      "Glauben": 3694,
      "abend": 3695,
      "##hern": 3696,
      "##üll": 3697,
      "##une": 3698,
      "##ierten": 3699,
      "gewinnen": 3700,
      "Inter": 3701,
      "Reden": 3702,
      "Gesinnungen": 3703,
      "Voltaire": 3704,
      "Essex": 3705,
      "Uhr": 3706,
      "ach": 3707,
      "dienen": 3708,
      "kn": 3709,
      "prä": 3710,
      "öfter": 3711,
      "##brechen": 3712,
      "##kehren": 3713,
      "siehst": 3714,
      "##rech": 3715,
      "##derben": 3716,
      "Streit": 3717,
      "manchen": 3718,
      "##reisen": 3719,
      "gewohnt": 3720,
      "Unsch": 3721,
      "##ammlung": 3722,
      "Blät": 3723,
      "Königin": 3724,
      "brauchen": 3725,
      "erinnern": 3726,
      "Tode": 3727,
      "Bra": 3728,
      "Gren": 3729,
      "Wurm": 3730,
      "wagen": 3731,
      "##kam": 3732,
      "##äre": 3733,
      "##steht": 3734,
      "Schein": 3735,
      "Verrina": 3736,
      "stär": 3737,
      "##icken": 3738,
      "bess": 3739,
      "Gebäu": 3740,
      "langsam": 3741,
      "Straße": 3742,
      "Abschied": 3743,
      "Bürger": 3744,
      "bitten": 3745,
      "ohn": 3746,
      "ta": 3747,
      "##ufen": 3748,
      "##ON": 3749,
      "wenigen": 3750,
      "Denk": 3751,
      "Beifall": 3752,
      "Gegenstände": 3753,
      "jemals": 3754,
      "\".": 3755,
      "Bette": 3756,
      "Urt": 3757,
      "gra": 3758,
      "mel": 3759,
      "##ümm": 3760,
      "##uel": 3761,
      "##zeug": 3762,
      "##onen": 3763,
      "wirft": 3764,
      "alsdann": 3765,
      "frisch": 3766,
      "Beide": 3767,
      "Freilich": 3768,
      "Leib": 3769,
      "Gutes": 3770,
      "Kalaf": 3771,
      "bloss": 3772,
      "Einbildungskraft": 3773,
      "Zwar": 3774,
      "##fert": 3775,
      "##wur": 3776,
      "##zunehmen": 3777,
      "##steh": 3778,
      "##ong": 3779,
      "angef": 3780,
      "gewiss": 3781,
      "##gesehen": 3782,
      "Stell": 3783,
      "betrü": 3784,
      "Wilhelmen": 3785,
      "Bau": 3786,
      "Mal": 3787,
      "zier": 3788,
      "##hielt": 3789,
      "##fält": 3790,
      "##lichkeiten": 3791,
      "##alter": 3792,
      "Schatten": 3793,
      "##utzt": 3794,
      "vorn": 3795,
      "abermals": 3796,
      "Rolle": 3797,
      "10": 3798,
      "Fing": 3799,
      "Wetter": 3800,
      "hil": 3801,
      "halte": 3802,
      "machten": 3803,
      "##die": 3804,
      "##ub": 3805,
      "erwe": 3806,
      "schönste": 3807,
      "Schlos": 3808,
      "Entschl": 3809,
      "erwider": 3810,
      "Brüder": 3811,
      "Eh": 3812,
      "Jag": 3813,
      "Viel": 3814,
      "ch": 3815,
      "halt": 3816,
      "##ädig": 3817,
      "##wahr": 3818,
      "##sta": 3819,
      "##lichem": 3820,
      "##cker": 3821,
      "verbergen": 3822,
      "wovon": 3823,
      "Beste": 3824,
      "weiss": 3825,
      "##gelegt": 3826,
      "Manne": 3827,
      "würdig": 3828,
      "einzeln": 3829,
      "Prinzen": 3830,
      "standen": 3831,
      "Amtmann": 3832,
      "fehl": 3833,
      "munter": 3834,
      "##ßten": 3835,
      "##ui": 3836,
      "##zur": 3837,
      "##HOR": 3838,
      "##ane": 3839,
      "##orai": 3840,
      "soviel": 3841,
      "Sieh": 3842,
      "##ielten": 3843,
      "Nachahm": 3844,
      "verbunden": 3845,
      "vergnü": 3846,
      "Sonnen": 3847,
      "Feinde": 3848,
      "gegangen": 3849,
      "köst": 3850,
      "nächsten": 3851,
      "Aben": 3852,
      "Ta": 3853,
      "XX": 3854,
      "täglich": 3855,
      "##vater": 3856,
      "##arbei": 3857,
      "##schwei": 3858,
      "unten": 3859,
      "wozu": 3860,
      "##utig": 3861,
      "gehör": 3862,
      "gesehn": 3863,
      "Beispiel": 3864,
      "Genius": 3865,
      "Leb": 3866,
      "Ehren": 3867,
      "hüb": 3868,
      "Vernunft": 3869,
      "Iphigenie": 3870,
      "Get": 3871,
      "Rücken": 3872,
      "##hang": 3873,
      "##met": 3874,
      "##iefe": 3875,
      "gezogen": 3876,
      "##ennte": 3877,
      "##ehrten": 3878,
      "ausdr": 3879,
      "Verlegen": 3880,
      "##rot": 3881,
      "##leidet": 3882,
      "willkommen": 3883,
      "obgleich": 3884,
      "leise": 3885,
      "Ruhm": 3886,
      "lebendig": 3887,
      "edlen": 3888,
      "Tragoedie": 3889,
      "erklären": 3890,
      "Zusammen": 3891,
      "Kon": 3892,
      "Opfer": 3893,
      "laut": 3894,
      "sämt": 3895,
      "trag": 3896,
      "##bung": 3897,
      "##wesen": 3898,
      "##LK": 3899,
      "##UN": 3900,
      "##enkt": 3901,
      "##orte": 3902,
      "##iter": 3903,
      "veränd": 3904,
      "bedien": 3905,
      "##wegs": 3906,
      "schlägt": 3907,
      "allgemein": 3908,
      "Falle": 3909,
      "##oraide": 3910,
      "Corn": 3911,
      "Do": 3912,
      "Flei": 3913,
      "Rache": 3914,
      "Tal": 3915,
      "##diger": 3916,
      "zuf": 3917,
      "##atur": 3918,
      "##ehret": 3919,
      "hingegen": 3920,
      "gutes": 3921,
      "erstaun": 3922,
      "Geduld": 3923,
      "Bett": 3924,
      "Verhältnisse": 3925,
      "Palast": 3926,
      "##gült": 3927,
      "Frieden": 3928,
      "Form": 3929,
      "nimm": 3930,
      "##gliche": 3931,
      "##iebt": 3932,
      "##igfalt": 3933,
      "##reichen": 3934,
      "wirken": 3935,
      "bewegt": 3936,
      "Antwort": 3937,
      "ungehe": 3938,
      "Italien": 3939,
      "##pen": 3940,
      "##wie": 3941,
      "##wenden": 3942,
      "##iget": 3943,
      "##schn": 3944,
      "##bert": 3945,
      "schaffen": 3946,
      "Best": 3947,
      "##änger": 3948,
      "##barer": 3949,
      "möcht": 3950,
      "erscheint": 3951,
      "##assung": 3952,
      "Orte": 3953,
      "Todes": 3954,
      "Verbrechen": 3955,
      "betrachten": 3956,
      "Oberst": 3957,
      "##ampag": 3958,
      "Gal": 3959,
      "Hät": 3960,
      "Mau": 3961,
      "bat": 3962,
      "mochte": 3963,
      "wack": 3964,
      "##nissen": 3965,
      "##vollen": 3966,
      "##asser": 3967,
      "##hlt": 3968,
      "hinweg": 3969,
      "Rechte": 3970,
      "gesell": 3971,
      "stellen": 3972,
      "Felix": 3973,
      "##idor": 3974,
      "Philine": 3975,
      "einigermaßen": 3976,
      "jemand": 3977,
      "Reisende": 3978,
      "Pause": 3979,
      "Waffen": 3980,
      "Zorn": 3981,
      "bein": 3982,
      "mache": 3983,
      "##iche": 3984,
      "##tere": 3985,
      "##oche": 3986,
      "##annte": 3987,
      "Aufen": 3988,
      "Georg": 3989,
      "entb": 3990,
      "reichen": 3991,
      "Vorstellung": 3992,
      "geschieht": 3993,
      "keinem": 3994,
      "##richten": 3995,
      "laesst": 3996,
      "Indessen": 3997,
      "Niemand": 3998,
      "junger": 3999,
      "Rosa": 4000,
      "Aufenth": 4001,
      "Wahn": 4002,
      "dien": 4003,
      "##ssel": 4004,
      "##sucht": 4005,
      "verlie": 4006,
      "##reckt": 4007,
      "beiseite": 4008,
      "##leiden": 4009,
      "Zufall": 4010,
      "gelesen": 4011,
      "Genuß": 4012,
      "##ählt": 4013,
      "heft": 4014,
      "Geistes": 4015,
      "Glas": 4016,
      "großes": 4017,
      "Christ": 4018,
      "Engl": 4019,
      "Jeder": 4020,
      "Soldaten": 4021,
      "At": 4022,
      "Haß": 4023,
      "II": 4024,
      "Ihn": 4025,
      "Kleid": 4026,
      "Kerl": 4027,
      "Teile": 4028,
      "göt": 4029,
      "##geist": 4030,
      "##ven": 4031,
      "##err": 4032,
      "##ehnen": 4033,
      "Schne": 4034,
      "##ags": 4035,
      "Vert": 4036,
      "Verm": 4037,
      "Vermögen": 4038,
      "gelang": 4039,
      "Blatt": 4040,
      "Mari": 4041,
      "heimlich": 4042,
      "Heer": 4043,
      "Drum": 4044,
      "Mohr": 4045,
      "Hinter": 4046,
      "verschiedene": 4047,
      "natürlich": 4048,
      "Grie": 4049,
      "Miller": 4050,
      "tö": 4051,
      "wicht": 4052,
      "##ias": 4053,
      "##frau": 4054,
      "##NST": 4055,
      "##els": 4056,
      "##ittern": 4057,
      "ansch": 4058,
      "##enner": 4059,
      "##isser": 4060,
      "womit": 4061,
      "entweder": 4062,
      "##amme": 4063,
      "hohe": 4064,
      "glaub": 4065,
      "verborgen": 4066,
      "versteht": 4067,
      "Elis": 4068,
      "Kindern": 4069,
      "verschiedenen": 4070,
      "betrachtet": 4071,
      "überzeugt": 4072,
      "waere": 4073,
      "Bin": 4074,
      "Gru": 4075,
      "Hor": 4076,
      "Muß": 4077,
      "Tische": 4078,
      "faßt": 4079,
      "wahren": 4080,
      "##blei": 4081,
      "##arte": 4082,
      "##igin": 4083,
      "ausges": 4084,
      "##ischt": 4085,
      "##euf": 4086,
      "##ument": 4087,
      "hinunter": 4088,
      "gehor": 4089,
      "##riffe": 4090,
      "Flügel": 4091,
      "Hofe": 4092,
      "Stellen": 4093,
      "Grunde": 4094,
      "##gestalt": 4095
    }
  }
}